{
  "version": "1.0",
  "truncation": null,
  "padding": null,
  "added_tokens": [
    {
      "id": 52000,
      "content": "\n",
      "single_word": false,
      "lstrip": false,
      "rstrip": false,
      "normalized": true,
      "special": false
    },
    {
      "id": 52001,
      "content": "<PAD>",
      "single_word": false,
      "lstrip": false,
      "rstrip": false,
      "normalized": true,
      "special": false
    },
    {
      "id": 52002,
      "content": "<EOS>",
      "single_word": false,
      "lstrip": false,
      "rstrip": false,
      "normalized": true,
      "special": false
    },
    {
      "id": 52003,
      "content": "<SYS>",
      "single_word": false,
      "lstrip": false,
      "rstrip": false,
      "normalized": true,
      "special": false
    },
    {
      "id": 52004,
      "content": "</SYS>",
      "single_word": false,
      "lstrip": false,
      "rstrip": false,
      "normalized": true,
      "special": false
    },
    {
      "id": 52005,
      "content": "<THINK>",
      "single_word": false,
      "lstrip": false,
      "rstrip": false,
      "normalized": true,
      "special": false
    },
    {
      "id": 52006,
      "content": "/THINK>",
      "single_word": false,
      "lstrip": false,
      "rstrip": false,
      "normalized": true,
      "special": false
    },
    {
      "id": 52007,
      "content": "<WEB>",
      "single_word": false,
      "lstrip": false,
      "rstrip": false,
      "normalized": true,
      "special": false
    },
    {
      "id": 52008,
      "content": "/WEB>",
      "single_word": false,
      "lstrip": false,
      "rstrip": false,
      "normalized": true,
      "special": false
    },
    {
      "id": 52009,
      "content": "<USER>",
      "single_word": false,
      "lstrip": false,
      "rstrip": false,
      "normalized": true,
      "special": false
    },
    {
      "id": 52010,
      "content": "/USER>",
      "single_word": false,
      "lstrip": false,
      "rstrip": false,
      "normalized": true,
      "special": false
    },
    {
      "id": 52011,
      "content": "<ASSISTANT>",
      "single_word": false,
      "lstrip": false,
      "rstrip": false,
      "normalized": true,
      "special": false
    },
    {
      "id": 52012,
      "content": "/ASSISTANT_",
      "single_word": false,
      "lstrip": false,
      "rstrip": false,
      "normalized": true,
      "special": false
    },
    {
      "id": 52013,
      "content": "res1",
      "single_word": false,
      "lstrip": false,
      "rstrip": false,
      "normalized": true,
      "special": false
    },
    {
      "id": 52014,
      "content": "res2",
      "single_word": false,
      "lstrip": false,
      "rstrip": false,
      "normalized": true,
      "special": false
    },
    {
      "id": 52015,
      "content": "res3",
      "single_word": false,
      "lstrip": false,
      "rstrip": false,
      "normalized": true,
      "special": false
    },
    {
      "id": 52016,
      "content": "res4",
      "single_word": false,
      "lstrip": false,
      "rstrip": false,
      "normalized": true,
      "special": false
    },
    {
      "id": 52017,
      "content": "res5",
      "single_word": false,
      "lstrip": false,
      "rstrip": false,
      "normalized": true,
      "special": false
    },
    {
      "id": 52018,
      "content": "res6",
      "single_word": false,
      "lstrip": false,
      "rstrip": false,
      "normalized": true,
      "special": false
    },
    {
      "id": 52019,
      "content": "res7",
      "single_word": false,
      "lstrip": false,
      "rstrip": false,
      "normalized": true,
      "special": false
    },
    {
      "id": 52020,
      "content": "res8",
      "single_word": false,
      "lstrip": false,
      "rstrip": false,
      "normalized": true,
      "special": false
    },
    {
      "id": 52021,
      "content": "res9",
      "single_word": false,
      "lstrip": false,
      "rstrip": false,
      "normalized": true,
      "special": false
    },
    {
      "id": 52022,
      "content": "res10",
      "single_word": false,
      "lstrip": false,
      "rstrip": false,
      "normalized": true,
      "special": false
    }
  ],
  "normalizer": null,
  "pre_tokenizer": {
    "type": "Sequence",
    "pretokenizers": [
      {
        "type": "Digits",
        "individual_digits": false
      },
      {
        "type": "ByteLevel",
        "add_prefix_space": false,
        "trim_offsets": true,
        "use_regex": true
      }
    ]
  },
  "post_processor": {
    "type": "ByteLevel",
    "add_prefix_space": true,
    "trim_offsets": false,
    "use_regex": true
  },
  "decoder": {
    "type": "ByteLevel",
    "add_prefix_space": true,
    "trim_offsets": true,
    "use_regex": true
  },
  "model": {
    "type": "BPE",
    "dropout": null,
    "unk_token": null,
    "continuing_subword_prefix": null,
    "end_of_word_suffix": null,
    "fuse_unk": false,
    "byte_fallback": false,
    "ignore_merges": false,
    "vocab": {
      "!": 0,
      "\"": 1,
      "#": 2,
      "$": 3,
      "%": 4,
      "&": 5,
      "'": 6,
      "(": 7,
      ")": 8,
      "*": 9,
      "+": 10,
      ",": 11,
      "-": 12,
      ".": 13,
      "/": 14,
      "0": 15,
      "1": 16,
      "2": 17,
      "3": 18,
      "4": 19,
      "5": 20,
      "6": 21,
      "7": 22,
      "8": 23,
      "9": 24,
      ":": 25,
      ";": 26,
      "<": 27,
      "=": 28,
      ">": 29,
      "?": 30,
      "@": 31,
      "A": 32,
      "B": 33,
      "C": 34,
      "D": 35,
      "E": 36,
      "F": 37,
      "G": 38,
      "H": 39,
      "I": 40,
      "J": 41,
      "K": 42,
      "L": 43,
      "M": 44,
      "N": 45,
      "O": 46,
      "P": 47,
      "Q": 48,
      "R": 49,
      "S": 50,
      "T": 51,
      "U": 52,
      "V": 53,
      "W": 54,
      "X": 55,
      "Y": 56,
      "Z": 57,
      "[": 58,
      "\\": 59,
      "]": 60,
      "^": 61,
      "_": 62,
      "`": 63,
      "a": 64,
      "b": 65,
      "c": 66,
      "d": 67,
      "e": 68,
      "f": 69,
      "g": 70,
      "h": 71,
      "i": 72,
      "j": 73,
      "k": 74,
      "l": 75,
      "m": 76,
      "n": 77,
      "o": 78,
      "p": 79,
      "q": 80,
      "r": 81,
      "s": 82,
      "t": 83,
      "u": 84,
      "v": 85,
      "w": 86,
      "x": 87,
      "y": 88,
      "z": 89,
      "{": 90,
      "|": 91,
      "}": 92,
      "~": 93,
      "¡": 94,
      "¢": 95,
      "£": 96,
      "¤": 97,
      "¥": 98,
      "¦": 99,
      "§": 100,
      "¨": 101,
      "©": 102,
      "ª": 103,
      "«": 104,
      "¬": 105,
      "®": 106,
      "¯": 107,
      "°": 108,
      "±": 109,
      "²": 110,
      "³": 111,
      "´": 112,
      "µ": 113,
      "¶": 114,
      "·": 115,
      "¸": 116,
      "¹": 117,
      "º": 118,
      "»": 119,
      "¼": 120,
      "½": 121,
      "¾": 122,
      "¿": 123,
      "À": 124,
      "Á": 125,
      "Â": 126,
      "Ã": 127,
      "Ä": 128,
      "Å": 129,
      "Æ": 130,
      "Ç": 131,
      "È": 132,
      "É": 133,
      "Ê": 134,
      "Ë": 135,
      "Ì": 136,
      "Í": 137,
      "Î": 138,
      "Ï": 139,
      "Ð": 140,
      "Ñ": 141,
      "Ò": 142,
      "Ó": 143,
      "Ô": 144,
      "Õ": 145,
      "Ö": 146,
      "×": 147,
      "Ø": 148,
      "Ù": 149,
      "Ú": 150,
      "Û": 151,
      "Ü": 152,
      "Ý": 153,
      "Þ": 154,
      "ß": 155,
      "à": 156,
      "á": 157,
      "â": 158,
      "ã": 159,
      "ä": 160,
      "å": 161,
      "æ": 162,
      "ç": 163,
      "è": 164,
      "é": 165,
      "ê": 166,
      "ë": 167,
      "ì": 168,
      "í": 169,
      "î": 170,
      "ï": 171,
      "ð": 172,
      "ñ": 173,
      "ò": 174,
      "ó": 175,
      "ô": 176,
      "õ": 177,
      "ö": 178,
      "÷": 179,
      "ø": 180,
      "ù": 181,
      "ú": 182,
      "û": 183,
      "ü": 184,
      "ý": 185,
      "þ": 186,
      "ÿ": 187,
      "Ā": 188,
      "ā": 189,
      "Ă": 190,
      "ă": 191,
      "Ą": 192,
      "ą": 193,
      "Ć": 194,
      "ć": 195,
      "Ĉ": 196,
      "ĉ": 197,
      "Ċ": 198,
      "ċ": 199,
      "Č": 200,
      "č": 201,
      "Ď": 202,
      "ď": 203,
      "Đ": 204,
      "đ": 205,
      "Ē": 206,
      "ē": 207,
      "Ĕ": 208,
      "ĕ": 209,
      "Ė": 210,
      "ė": 211,
      "Ę": 212,
      "ę": 213,
      "Ě": 214,
      "ě": 215,
      "Ĝ": 216,
      "ĝ": 217,
      "Ğ": 218,
      "ğ": 219,
      "Ġ": 220,
      "ġ": 221,
      "Ģ": 222,
      "ģ": 223,
      "Ĥ": 224,
      "ĥ": 225,
      "Ħ": 226,
      "ħ": 227,
      "Ĩ": 228,
      "ĩ": 229,
      "Ī": 230,
      "ī": 231,
      "Ĭ": 232,
      "ĭ": 233,
      "Į": 234,
      "į": 235,
      "İ": 236,
      "ı": 237,
      "Ĳ": 238,
      "ĳ": 239,
      "Ĵ": 240,
      "ĵ": 241,
      "Ķ": 242,
      "ķ": 243,
      "ĸ": 244,
      "Ĺ": 245,
      "ĺ": 246,
      "Ļ": 247,
      "ļ": 248,
      "Ľ": 249,
      "ľ": 250,
      "Ŀ": 251,
      "ŀ": 252,
      "Ł": 253,
      "ł": 254,
      "Ń": 255,
      "Ġt": 256,
      "Ġa": 257,
      "he": 258,
      "in": 259,
      "re": 260,
      "on": 261,
      "Ġthe": 262,
      "er": 263,
      "Ġs": 264,
      "Ġw": 265,
      "at": 266,
      "Ġo": 267,
      "nd": 268,
      "Ġc": 269,
      "it": 270,
      "or": 271,
      "is": 272,
      "en": 273,
      "es": 274,
      "Ġf": 275,
      "Ġb": 276,
      "ou": 277,
      "ing": 278,
      "Ġp": 279,
      "ed": 280,
      "an": 281,
      "al": 282,
      "Ġto": 283,
      "ar": 284,
      "Ġm": 285,
      "Ġof": 286,
      "Ġand": 287,
      "Ġin": 288,
      "Ġd": 289,
      "ic": 290,
      "Ġh": 291,
      "as": 292,
      "le": 293,
      "Ġth": 294,
      "om": 295,
      "ion": 296,
      "ll": 297,
      "ent": 298,
      "Ġl": 299,
      "st": 300,
      "Ġn": 301,
      "ve": 302,
      "Ġre": 303,
      "Ġe": 304,
      "ro": 305,
      "Ġg": 306,
      "ĠI": 307,
      "âĢ": 308,
      "ly": 309,
      "Ġbe": 310,
      "ct": 311,
      "ĠS": 312,
      "ĠT": 313,
      "ut": 314,
      "ot": 315,
      "id": 316,
      "ay": 317,
      "Ġy": 318,
      "et": 319,
      "Ġon": 320,
      "Ġis": 321,
      "Ġfor": 322,
      "ĠC": 323,
      "ĠA": 324,
      "ow": 325,
      "am": 326,
      "ad": 327,
      "se": 328,
      "ur": 329,
      "im": 330,
      "ig": 331,
      "ac": 332,
      "Ġthat": 333,
      "ver": 334,
      "Ġu": 335,
      "Ġyou": 336,
      "il": 337,
      "ol": 338,
      "Ġst": 339,
      "ation": 340,
      "ĠM": 341,
      "ith": 342,
      "ir": 343,
      "Ġhe": 344,
      "Ġit": 345,
      "Ġwith": 346,
      "ce": 347,
      "ch": 348,
      "ĠB": 349,
      "ĠP": 350,
      "Ġwe": 351,
      "Ġwh": 352,
      "ter": 353,
      "ill": 354,
      "Ġan": 355,
      "Ġas": 356,
      "âĢĻ": 357,
      "ra": 358,
      "ers": 359,
      "ke": 360,
      "ld": 361,
      "ĠW": 362,
      "ĠH": 363,
      "Ġha": 364,
      "if": 365,
      "Ġat": 366,
      "Ġpro": 367,
      "ĠD": 368,
      "ge": 369,
      "her": 370,
      "Ġcon": 371,
      "Ġare": 372,
      "oo": 373,
      "ate": 374,
      "Ġse": 375,
      "ĠR": 376,
      "ĠF": 377,
      "ri": 378,
      "Ġwas": 379,
      "pp": 380,
      "ĠThe": 381,
      "ul": 382,
      "ore": 383,
      "Ġor": 384,
      "Ġ(": 385,
      "Ġcom": 386,
      "ment": 387,
      "th": 388,
      "Ġde": 389,
      "igh": 390,
      "est": 391,
      "us": 392,
      "ess": 393,
      "rom": 394,
      "ist": 395,
      "ew": 396,
      "un": 397,
      "ab": 398,
      "ĠL": 399,
      "op": 400,
      "'s": 401,
      "ĠN": 402,
      "Ġr": 403,
      "ĠG": 404,
      "res": 405,
      "Ġex": 406,
      "em": 407,
      "ity": 408,
      "ant": 409,
      "Ġhave": 410,
      "pe": 411,
      "Ġsu": 412,
      "Ġv": 413,
      "ive": 414,
      "Ġthis": 415,
      "qu": 416,
      "Ġnot": 417,
      "Ġby": 418,
      "ĠE": 419,
      "ort": 420,
      "Ġfrom": 421,
      "ain": 422,
      "art": 423,
      "Ġsh": 424,
      "el": 425,
      "and": 426,
      "nt": 427,
      "ust": 428,
      "os": 429,
      "oc": 430,
      "um": 431,
      "ight": 432,
      "20": 433,
      "ies": 434,
      "all": 435,
      "Ġal": 436,
      "ould": 437,
      "Ġch": 438,
      "ĠO": 439,
      "ard": 440,
      "ĠJ": 441,
      "out": 442,
      "Ġle": 443,
      "ear": 444,
      "ud": 445,
      "ĠâĢ": 446,
      "ome": 447,
      "our": 448,
      "gh": 449,
      "Ġab": 450,
      "Ġwill": 451,
      "red": 452,
      "ast": 453,
      "ost": 454,
      "iv": 455,
      "Ġcan": 456,
      "ally": 457,
      "Ġpl": 458,
      "ack": 459,
      "Ġj": 460,
      "The": 461,
      "Ġdo": 462,
      "Ġwor": 463,
      "te": 464,
      "od": 465,
      "rou": 466,
      "Ġall": 467,
      "ak": 468,
      "Ġyour": 469,
      "Ġbut": 470,
      "ag": 471,
      "Ġhas": 472,
      "Ġk": 473,
      "ide": 474,
      "ine": 475,
      "ie": 476,
      "Ġme": 477,
      "Ġwhe": 478,
      "ff": 479,
      "Ġne": 480,
      "..": 481,
      "ice": 482,
      "pt": 483,
      "ure": 484,
      "ich": 485,
      "ĠU": 486,
      "Ġhis": 487,
      "Ġout": 488,
      "ther": 489,
      "per": 490,
      "ial": 491,
      "ction": 492,
      "Ġ\"": 493,
      "Ġsa": 494,
      "Ġup": 495,
      "age": 496,
      "Ġthey": 497,
      "Ġad": 498,
      "one": 499,
      "pl": 500,
      "ook": 501,
      "ame": 502,
      "ry": 503,
      "Ġus": 504,
      "og": 505,
      "âĢĿ": 506,
      "ong": 507,
      "Ġmore": 508,
      "Ġtheir": 509,
      "are": 510,
      "Ġso": 511,
      "ind": 512,
      "Ġmy": 513,
      "Ġone": 514,
      "00": 515,
      "ake": 516,
      "ated": 517,
      "ood": 518,
      "Ġwho": 519,
      "Ġte": 520,
      "ber": 521,
      "very": 522,
      "ip": 523,
      "ous": 524,
      "ans": 525,
      "ime": 526,
      "ike": 527,
      "Ġabout": 528,
      "Ġcomp": 529,
      "ite": 530,
      "Ġen": 531,
      "Ġcl": 532,
      "Ġgo": 533,
      "able": 534,
      "ĠK": 535,
      "cc": 536,
      "iz": 537,
      "orm": 538,
      "ĠIn": 539,
      "ĠTh": 540,
      "Ġ-": 541,
      "ĠSt": 542,
      "Ġcont": 543,
      "ect": 544,
      "ru": 545,
      "Ġim": 546,
      "ace": 547,
      "ks": 548,
      "Ġoff": 549,
      "ia": 550,
      "ary": 551,
      "cl": 552,
      "so": 553,
      "ions": 554,
      "Ġman": 555,
      "Ġwhich": 556,
      "ub": 557,
      "ire": 558,
      "Ġyear": 559,
      "ap": 560,
      "ree": 561,
      "to": 562,
      "ance": 563,
      "ase": 564,
      "au": 565,
      "Ġres": 566,
      "ail": 567,
      "ays": 568,
      "act": 569,
      "Ġhad": 570,
      "ib": 571,
      "ven": 572,
      "Ġper": 573,
      "ĠâĢľ": 574,
      "du": 575,
      "ach": 576,
      "Ġother": 577,
      "ass": 578,
      "ign": 579,
      "ep": 580,
      "Ġapp": 581,
      "Ġwere": 582,
      "ĠY": 583,
      "Ġour": 584,
      "Ġag": 585,
      "ations": 586,
      "ĠCh": 587,
      "ick": 588,
      "ue": 589,
      "Ġlike": 590,
      "ĠV": 591,
      "ond": 592,
      "reat": 593,
      "Ġwould": 594,
      "Ġsaid": 595,
      "ord": 596,
      "Ġany": 597,
      "Ġqu": 598,
      "Ġbeen": 599,
      "Ġsome": 600,
      "Ġun": 601,
      "ical": 602,
      "ult": 603,
      "own": 604,
      "Ġdis": 605,
      "201": 606,
      "ount": 607,
      "Ġnew": 608,
      "ile": 609,
      "'t": 610,
      "19": 611,
      "Ġtime": 612,
      "Ġher": 613,
      "Ġkn": 614,
      "Ġthere": 615,
      "ove": 616,
      "Ġget": 617,
      "ough": 618,
      "ress": 619,
      "ose": 620,
      "Ġsp": 621,
      "Ġthem": 622,
      "form": 623,
      "Ġover": 624,
      "ings": 625,
      "Ġar": 626,
      "erv": 627,
      "Ġpart": 628,
      "ĠIt": 629,
      "ence": 630,
      "Ġalso": 631,
      "Ġwhen": 632,
      "mer": 633,
      "Ġsc": 634,
      "av": 635,
      "Ġrec": 636,
      "Ġtr": 637,
      "Ġpe": 638,
      "Ġwhat": 639,
      "fe": 640,
      "Ġjust": 641,
      "ark": 642,
      "Ġwork": 643,
      "Ġthan": 644,
      "ound": 645,
      "irst": 646,
      "int": 647,
      "ition": 648,
      "vel": 649,
      "Ġif": 650,
      "ors": 651,
      "ents": 652,
      "ĠHe": 653,
      "ink": 654,
      "200": 655,
      "ren": 656,
      "ens": 657,
      "ob": 658,
      "Ġbec": 659,
      "Ġfe": 660,
      "Ġtw": 661,
      "Ġpre": 662,
      "port": 663,
      "ish": 664,
      "wn": 665,
      "ory": 666,
      "Ġro": 667,
      "Ġspe": 668,
      "fter": 669,
      "ild": 670,
      "Ġinto": 671,
      "ne": 672,
      "itt": 673,
      "ople": 674,
      "Ġits": 675,
      "vers": 676,
      "lic": 677,
      "ade": 678,
      "ov": 679,
      "ck": 680,
      "nder": 681,
      "ĠWe": 682,
      "Ġfirst": 683,
      "oy": 684,
      "Ġam": 685,
      "Ġshe": 686,
      "ning": 687,
      "day": 688,
      "ons": 689,
      "old": 690,
      "Ġno": 691,
      "rough": 692,
      "hed": 693,
      "ater": 694,
      "amp": 695,
      "Ġpeople": 696,
      "ang": 697,
      "Ġco": 698,
      "Ġacc": 699,
      "Ġhow": 700,
      "Ġbl": 701,
      "ian": 702,
      "clud": 703,
      "10": 704,
      "ause": 705,
      "we": 706,
      "ates": 707,
      "Ġonly": 708,
      "Ġtwo": 709,
      "Ġcomm": 710,
      "Ġpo": 711,
      "ious": 712,
      "ft": 713,
      "Ġmay": 714,
      "Ġknow": 715,
      "Ġneed": 716,
      "ict": 717,
      "anc": 718,
      "ull": 719,
      "Ġdes": 720,
      "Ġback": 721,
      "ual": 722,
      "end": 723,
      "gr": 724,
      "ments": 725,
      "hing": 726,
      "Ġplay": 727,
      "iss": 728,
      "tern": 729,
      "iew": 730,
      "Ġlook": 731,
      "Ġbet": 732,
      "Ġadd": 733,
      "ĠRe": 734,
      "Ġhim": 735,
      ").": 736,
      "ph": 737,
      "Ġsee": 738,
      "Ġinclud": 739,
      "Ġmost": 740,
      "Ġafter": 741,
      "round": 742,
      "les": 743,
      "aw": 744,
      "Ġcould": 745,
      "...": 746,
      "Ġmake": 747,
      "ily": 748,
      "com": 749,
      "Ġpr": 750,
      "Ġwant": 751,
      "rent": 752,
      "Ġem": 753,
      "Ġthrough": 754,
      "Ġevery": 755,
      "Ġfl": 756,
      "sel": 757,
      "Ġunder": 758,
      "xt": 759,
      "Ġprov": 760,
      "Th": 761,
      "Ġdid": 762,
      "Ġind": 763,
      "ise": 764,
      "Ġact": 765,
      "oll": 766,
      ".\"": 767,
      "Ġcons": 768,
      "urn": 769,
      "ational": 770,
      "ool": 771,
      "fore": 772,
      "uch": 773,
      "Ġthese": 774,
      "Ġwell": 775,
      "Ġyears": 776,
      "Ġnow": 777,
      "ĠThis": 778,
      "ating": 779,
      "Ġgood": 780,
      "Ġph": 781,
      "ities": 782,
      "Ġvery": 783,
      "Ġhel": 784,
      "Ġ$": 785,
      "row": 786,
      "ont": 787,
      "Ġbu": 788,
      "ĠUn": 789,
      "Ġuse": 790,
      "ock": 791,
      "Ġeven": 792,
      "ife": 793,
      "Ġhelp": 794,
      "enc": 795,
      "Ġthen": 796,
      "Ġsec": 797,
      "pect": 798,
      "ident": 799,
      "ject": 800,
      "lect": 801,
      "rit": 802,
      "Ġstud": 803,
      "Ġprodu": 804,
      "Ġway": 805,
      "Ġright": 806,
      "Ġinv": 807,
      "ss": 808,
      "ts": 809,
      "hen": 810,
      "Ġthink": 811,
      "Ġdon": 812,
      "Ġbecause": 813,
      "Ġshould": 814,
      "Ġsupp": 815,
      "ec": 816,
      "als": 817,
      "oth": 818,
      "Ġwhere": 819,
      "Ġagain": 820,
      "Ġreg": 821,
      "Ġev": 822,
      "Ġrel": 823,
      "Ġmany": 824,
      "ting": 825,
      "Ġsy": 826,
      "ific": 827,
      "Ġrem": 828,
      "),": 829,
      "Ġserv": 830,
      "Ġgu": 831,
      "ty": 832,
      "ward": 833,
      "Ġtoo": 834,
      "man": 835,
      "rib": 836,
      "ied": 837,
      "ell": 838,
      "oss": 839,
      "ange": 840,
      "ĠAnd": 841,
      "Ġimp": 842,
      "ason": 843,
      "ĠCom": 844,
      "Ġcol": 845,
      "aking": 846,
      "Ġdif": 847,
      "Ġinc": 848,
      "other": 849,
      "ased": 850,
      "ath": 851,
      "ful": 852,
      "Ġass": 853,
      "Ġmuch": 854,
      "ices": 855,
      "Ġfin": 856,
      "ics": 857,
      "Ġdown": 858,
      "ited": 859,
      "ert": 860,
      "Ġgreat": 861,
      "ĠWh": 862,
      "up": 863,
      "olog": 864,
      "Ġke": 865,
      "get": 866,
      "erson": 867,
      "Ġown": 868,
      "Ġatt": 869,
      "Ġsm": 870,
      "ĠâĢĵ": 871,
      "Ġwee": 872,
      "formation": 873,
      "Ġtra": 874,
      "Ġshow": 875,
      "ĠNew": 876,
      "ble": 877,
      "uring": 878,
      "und": 879,
      "Ġent": 880,
      "ork": 881,
      "chool": 882,
      "Ġhere": 883,
      "Ġlast": 884,
      "ility": 885,
      "ible": 886,
      "Ġstart": 887,
      "ures": 888,
      "bs": 889,
      "12": 890,
      "Ġpres": 891,
      "Ġsuch": 892,
      "its": 893,
      "ative": 894,
      ",\"": 895,
      "ower": 896,
      "In": 897,
      "arch": 898,
      "Ġthose": 899,
      "hip": 900,
      "cess": 901,
      "Ġmade": 902,
      "Ġac": 903,
      "Ġcall": 904,
      ".âĢĿ": 905,
      "ys": 906,
      "ublic": 907,
      "air": 908,
      "hes": 909,
      "ular": 910,
      "Ġdoes": 911,
      "omet": 912,
      "Ġlong": 913,
      "stem": 914,
      "ms": 915,
      "ener": 916,
      "Ġbefore": 917,
      "Ġdec": 918,
      "ĠYou": 919,
      "ix": 920,
      "ĠAn": 921,
      "Ġend": 922,
      "ci": 923,
      "iness": 924,
      "Ġset": 925,
      "Ġread": 926,
      "ner": 927,
      "Ġbeing": 928,
      "ues": 929,
      "gan": 930,
      "velop": 931,
      "Ġmon": 932,
      "Ġinte": 933,
      "gram": 934,
      "Ġday": 935,
      "Ġbel": 936,
      "Ġinst": 937,
      "Ġpol": 938,
      "ract": 939,
      "Ġhigh": 940,
      "alk": 941,
      "Ġeff": 942,
      "io": 943,
      "meric": 944,
      "any": 945,
      "Ġtake": 946,
      "ĠPro": 947,
      "||": 948,
      "rest": 949,
      "ĠDe": 950,
      "Ġspec": 951,
      "ank": 952,
      "pr": 953,
      "Ġmin": 954,
      "alth": 955,
      "way": 956,
      "ĠBut": 957,
      "Ġfind": 958,
      "Ġsur": 959,
      "oun": 960,
      "ince": 961,
      "11": 962,
      "ars": 963,
      "ĠAl": 964,
      "Ġmem": 965,
      "ins": 966,
      "Ġinformation": 967,
      "Ġbr": 968,
      "Ġra": 969,
      "Ġ&": 970,
      "Ġbus": 971,
      "Ġsay": 972,
      "ax": 973,
      "Ġpoint": 974,
      "Ġloc": 975,
      "Ġgoing": 976,
      "Ġop": 977,
      "ollow": 978,
      "ave": 979,
      "ually": 980,
      "Ġworld": 981,
      "Ġreally": 982,
      "Ġthough": 983,
      "ex": 984,
      "ced": 985,
      "ah": 986,
      "ather": 987,
      "Ġexper": 988,
      "30": 989,
      "Ġfam": 990,
      "ivers": 991,
      "Ġear": 992,
      "âĢľ": 993,
      "land": 994,
      "ng": 995,
      "Ġteam": 996,
      "ces": 997,
      "Ġsub": 998,
      "self": 999,
      "ee": 1000,
      "Ġins": 1001,
      "Ġcount": 1002,
      "Ġche": 1003,
      "imes": 1004,
      "Ġwhile": 1005,
      "ĠAmeric": 1006,
      "Ġstill": 1007,
      "Ġhand": 1008,
      "Ġlead": 1009,
      "led": 1010,
      "15": 1011,
      "az": 1012,
      "ĠIf": 1013,
      "Ġdiffe": 1014,
      "Ġart": 1015,
      "Ġcour": 1016,
      "18": 1017,
      "Ġrun": 1018,
      "atch": 1019,
      "Ġinter": 1020,
      "read": 1021,
      "Ġthree": 1022,
      "ving": 1023,
      "Ġav": 1024,
      "ouse": 1025,
      "ĠSh": 1026,
      "irect": 1027,
      "view": 1028,
      "Ġgr": 1029,
      "Ġrequ": 1030,
      "Ġsystem": 1031,
      "Ġret": 1032,
      "Ġcar": 1033,
      "ives": 1034,
      "Ġperson": 1035,
      "ton": 1036,
      "We": 1037,
      "roup": 1038,
      "Ġused": 1039,
      "the": 1040,
      "gg": 1041,
      "cept": 1042,
      "Ġed": 1043,
      "ets": 1044,
      "ĠAr": 1045,
      "Ġstate": 1046,
      "Ġchar": 1047,
      "Ġbest": 1048,
      "ric": 1049,
      "Ġsim": 1050,
      "ittle": 1051,
      "Ġsomet": 1052,
      "Ġhome": 1053,
      "Ġdevelop": 1054,
      "Ġeach": 1055,
      "ier": 1056,
      "ever": 1057,
      "Ġser": 1058,
      "akes": 1059,
      "Ġnum": 1060,
      "ters": 1061,
      "Ġprogram": 1062,
      "ved": 1063,
      "Ġdisc": 1064,
      "Ġaround": 1065,
      ",âĢĿ": 1066,
      "ution": 1067,
      "oh": 1068,
      "Ġsame": 1069,
      "Ġsl": 1070,
      "vern": 1071,
      "Ġgame": 1072,
      "Ġmed": 1073,
      "ames": 1074,
      "ience": 1075,
      "Ġtrans": 1076,
      "ween": 1077,
      "ale": 1078,
      "ered": 1079,
      "Ġlife": 1080,
      "Ġmod": 1081,
      "riend": 1082,
      "ĠCl": 1083,
      "Ġfollow": 1084,
      "ines": 1085,
      "lease": 1086,
      "Ġfound": 1087,
      "Ġpost": 1088,
      "Ġboth": 1089,
      "Ġchild": 1090,
      "Ġcur": 1091,
      "It": 1092,
      "ute": 1093,
      "Ġmark": 1094,
      "ness": 1095,
      "ists": 1096,
      "Ġstr": 1097,
      "Ġdet": 1098,
      "chn": 1099,
      "ctions": 1100,
      "ash": 1101,
      "ĠAs": 1102,
      "uc": 1103,
      "Ġbo": 1104,
      "Ġreal": 1105,
      "Ġsign": 1106,
      "2012": 1107,
      "Ġvis": 1108,
      "iet": 1109,
      "ple": 1110,
      "ene": 1111,
      "unity": 1112,
      "Ġdef": 1113,
      "Ġcre": 1114,
      "Ġcare": 1115,
      "Ġbook": 1116,
      "ages": 1117,
      "ĠFor": 1118,
      "This": 1119,
      "Ġbetween": 1120,
      "line": 1121,
      "Ġfew": 1122,
      "000": 1123,
      "min": 1124,
      "der": 1125,
      "Ġexp": 1126,
      "ĠThey": 1127,
      "Ġsupport": 1128,
      "cent": 1129,
      "Ġbusiness": 1130,
      "Ġlittle": 1131,
      "uth": 1132,
      "orn": 1133,
      "ient": 1134,
      "Ġreport": 1135,
      "Ġrep": 1136,
      "Ġprovid": 1137,
      "Ġcomple": 1138,
      "ield": 1139,
      "Ġschool": 1140,
      "Ġgot": 1141,
      "ense": 1142,
      "Ġadv": 1143,
      "arm": 1144,
      "bers": 1145,
      "ention": 1146,
      "Ġhapp": 1147,
      "ĠSe": 1148,
      "Ġfil": 1149,
      "Ġsecond": 1150,
      "Ġplace": 1151,
      "con": 1152,
      "Ġdesign": 1153,
      "Ġlot": 1154,
      "ize": 1155,
      "50": 1156,
      "Wh": 1157,
      "Ġmonth": 1158,
      "oot": 1159,
      "Ġtop": 1160,
      "ves": 1161,
      "ĠLe": 1162,
      "Ġfeel": 1163,
      "ĠAd": 1164,
      "ug": 1165,
      "ized": 1166,
      "Ġlar": 1167,
      "Ġgl": 1168,
      "ĠFr": 1169,
      "illion": 1170,
      "Ġi": 1171,
      "thing": 1172,
      "ished": 1173,
      "ired": 1174,
      "ways": 1175,
      "Ġgener": 1176,
      "Ġput": 1177,
      "ĠBl": 1178,
      "Ġform": 1179,
      "cer": 1180,
      "Ġthings": 1181,
      "Ġter": 1182,
      "ants": 1183,
      "Ġopen": 1184,
      "Ġcle": 1185,
      "Ġduring": 1186,
      "Ġdifferent": 1187,
      "Ġcome": 1188,
      "Ġanother": 1189,
      "ody": 1190,
      "Ġweek": 1191,
      "Ġnext": 1192,
      "Ġfr": 1193,
      "Ġiss": 1194,
      "Ġmet": 1195,
      "Ġ'": 1196,
      "Ġbig": 1197,
      "Ġproduct": 1198,
      "Ġagainst": 1199,
      "Ġlove": 1200,
      "Ġcontin": 1201,
      "Ġfact": 1202,
      "Ġ--": 1203,
      "Ġhead": 1204,
      "Ġlist": 1205,
      "Ġsk": 1206,
      "Ġdist": 1207,
      "ital": 1208,
      "Ġcr": 1209,
      "ger": 1210,
      "Ġob": 1211,
      "ology": 1212,
      "ision": 1213,
      "Ġquest": 1214,
      "less": 1215,
      "Ġint": 1216,
      "Ġpublic": 1217,
      "Ġpur": 1218,
      "Ġplan": 1219,
      "Ġpass": 1220,
      "Ġsince": 1221,
      "Ġfull": 1222,
      "Ġmust": 1223,
      "Ġappro": 1224,
      "13": 1225,
      "ailable": 1226,
      "son": 1227,
      "Ġtri": 1228,
      "16": 1229,
      "Ġfun": 1230,
      "Ġwin": 1231,
      "Ġgroup": 1232,
      "14": 1233,
      "Ġsomething": 1234,
      "Ġinterest": 1235,
      "Ġext": 1236,
      "ross": 1237,
      "Ġcent": 1238,
      "ĠShe": 1239,
      "Ġpartic": 1240,
      "Ġbetter": 1241,
      "atur": 1242,
      "Ġtry": 1243,
      "Ġfree": 1244,
      "Ġnever": 1245,
      "Ġeas": 1246,
      "iversity": 1247,
      "Ġincluding": 1248,
      "Ġresp": 1249,
      "ature": 1250,
      "Ġfour": 1251,
      "Ġsays": 1252,
      "arn": 1253,
      "be": 1254,
      "reen": 1255,
      "rist": 1256,
      "ically": 1257,
      "Ġref": 1258,
      "ik": 1259,
      "Ġfriend": 1260,
      "ĠAll": 1261,
      "uss": 1262,
      "aj": 1263,
      "Ġrest": 1264,
      "ared": 1265,
      "Ġmov": 1266,
      "Ġprof": 1267,
      "Ġkeep": 1268,
      "ĠBe": 1269,
      "Ġpri": 1270,
      "'re": 1271,
      "ata": 1272,
      "ten": 1273,
      "'m": 1274,
      "rence": 1275,
      "Ġstand": 1276,
      "199": 1277,
      "Ġconf": 1278,
      "Ġbro": 1279,
      "Ġrece": 1280,
      "Ġask": 1281,
      "iving": 1282,
      "Ġcor": 1283,
      "Ġwithout": 1284,
      "Ġimport": 1285,
      "ĠâĢĶ": 1286,
      "Ġhard": 1287,
      "Ġlaw": 1288,
      "ering": 1289,
      "ism": 1290,
      "Ġposs": 1291,
      "Ġopp": 1292,
      "gy": 1293,
      "Ġprocess": 1294,
      "Ġlet": 1295,
      "ional": 1296,
      "Ġallow": 1297,
      "ĠIs": 1298,
      "Ġdirect": 1299,
      "oad": 1300,
      "ER": 1301,
      "Ġsmall": 1302,
      "att": 1303,
      "Ġproble": 1304,
      "Ġresult": 1305,
      "ret": 1306,
      "17": 1307,
      "Ġwom": 1308,
      ".,": 1309,
      "ately": 1310,
      "Ġseem": 1311,
      "ĠSo": 1312,
      "ĠThere": 1313,
      "Ġavailable": 1314,
      "vernment": 1315,
      "25": 1316,
      "Ġhealth": 1317,
      "2013": 1318,
      "rand": 1319,
      "Ġtechn": 1320,
      "ird": 1321,
      "Ġold": 1322,
      "Ġwr": 1323,
      "Ġmight": 1324,
      "Ġmus": 1325,
      "Ġalways": 1326,
      "ards": 1327,
      "Ġpat": 1328,
      "ĠCol": 1329,
      "ploy": 1330,
      "ined": 1331,
      "ww": 1332,
      "ok": 1333,
      "Ġdri": 1334,
      "Ġseason": 1335,
      "Ġinf": 1336,
      "ample": 1337,
      "âĢĶ": 1338,
      "ling": 1339,
      "ĠPl": 1340,
      "Ġ|": 1341,
      "Ġunt": 1342,
      "Ġnumber": 1343,
      "ĠPh": 1344,
      "Ġusing": 1345,
      "Ġclass": 1346,
      "Ġfamily": 1347,
      "ope": 1348,
      "ality": 1349,
      "Ġorgan": 1350,
      "Ġbelie": 1351,
      "ley": 1352,
      "ott": 1353,
      "Ġpower": 1354,
      "ĠQ": 1355,
      "ertain": 1356,
      "rol": 1357,
      "oney": 1358,
      "ĠCon": 1359,
      "ining": 1360,
      "me": 1361,
      "Ġann": 1362,
      "Ġel": 1363,
      "ission": 1364,
      "He": 1365,
      "Ġperform": 1366,
      "ustom": 1367,
      "ior": 1368,
      "ohn": 1369,
      "Ġsol": 1370,
      "Ġval": 1371,
      "ĠComm": 1372,
      "ĠHow": 1373,
      "Ġexpl": 1374,
      "pped": 1375,
      "Ġide": 1376,
      "ably": 1377,
      "Ġ.": 1378,
      "Ġmain": 1379,
      "Ġincre": 1380,
      "ote": 1381,
      "osed": 1382,
      "Ġturn": 1383,
      "iqu": 1384,
      "ĠOn": 1385,
      "Ġsoc": 1386,
      "Ġdays": 1387,
      "ats": 1388,
      "Ġbuild": 1389,
      "ware": 1390,
      "'ve": 1391,
      "Ġvar": 1392,
      "ĠTe": 1393,
      "Ġty": 1394,
      "gin": 1395,
      "outh": 1396,
      "ĠCent": 1397,
      "ann": 1398,
      "ged": 1399,
      "ĠInd": 1400,
      "Ġless": 1401,
      "Ġeffect": 1402,
      "ĠEx": 1403,
      "Ġsure": 1404,
      "tt": 1405,
      "Ġwater": 1406,
      "stand": 1407,
      "ember": 1408,
      "br": 1409,
      "uck": 1410,
      "âĢ¦": 1411,
      "Ġnight": 1412,
      "Ġcompany": 1413,
      "--": 1414,
      "enn": 1415,
      "Ġproject": 1416,
      "Ġgive": 1417,
      "ĠThat": 1418,
      "Ġdel": 1419,
      "ĠZ": 1420,
      "Ġpay": 1421,
      "raph": 1422,
      "here": 1423,
      "Ġbre": 1424,
      "ĠMay": 1425,
      "Ġtoday": 1426,
      "Ġmarket": 1427,
      "Ġlevel": 1428,
      "Ġcurrent": 1429,
      "2011": 1430,
      "ĠMar": 1431,
      "Ġca": 1432,
      "orth": 1433,
      "els": 1434,
      "24": 1435,
      "by": 1436,
      "Ġrecord": 1437,
      "ccess": 1438,
      "ently": 1439,
      "Ġleg": 1440,
      "ĠOr": 1441,
      "Ġpast": 1442,
      "ron": 1443,
      "Ġmeet": 1444,
      "ator": 1445,
      "ency": 1446,
      "iver": 1447,
      "Ġcost": 1448,
      "tend": 1449,
      "Ġpos": 1450,
      "ases": 1451,
      "Ġuntil": 1452,
      "istr": 1453,
      "Ġview": 1454,
      "ĠUS": 1455,
      "Ġ[": 1456,
      "Ġdidn": 1457,
      "Ġoffic": 1458,
      "Ġtest": 1459,
      "Ġleft": 1460,
      "med": 1461,
      "Ġrese": 1462,
      "pend": 1463,
      "ĠSp": 1464,
      "ral": 1465,
      "Ġve": 1466,
      "If": 1467,
      "oint": 1468,
      "Ġaway": 1469,
      "Ġjob": 1470,
      "augh": 1471,
      "inal": 1472,
      "conom": 1473,
      "ised": 1474,
      "ney": 1475,
      "Ġinvest": 1476,
      "Ġhum": 1477,
      "Ġfac": 1478,
      "ption": 1479,
      "Ġimportant": 1480,
      "Ġthing": 1481,
      "ina": 1482,
      "Ġoper": 1483,
      "Ġsit": 1484,
      "Ġservice": 1485,
      "ĠUniversity": 1486,
      "Ġhour": 1487,
      "Ġhist": 1488,
      "Ġchildren": 1489,
      "IN": 1490,
      "ury": 1491,
      "Ġpercent": 1492,
      "alf": 1493,
      "ead": 1494,
      "ted": 1495,
      "Ġprom": 1496,
      "ĠJohn": 1497,
      "Ġgrow": 1498,
      "Ġprev": 1499,
      "Ġcase": 1500,
      "ĠNo": 1501,
      "arent": 1502,
      "ains": 1503,
      "ĠSc": 1504,
      "lection": 1505,
      "Ġable": 1506,
      "Ġphot": 1507,
      "Ġdem": 1508,
      "ĠChrist": 1509,
      "Ġstudents": 1510,
      "Ġest": 1511,
      "ium": 1512,
      "Ġbeh": 1513,
      "Ġbas": 1514,
      "Ġtell": 1515,
      "ĠRes": 1516,
      "ured": 1517,
      "Ġsite": 1518,
      "Ġnear": 1519,
      "oci": 1520,
      "ĠAmerican": 1521,
      "Ġpresent": 1522,
      "Ġorder": 1523,
      "urs": 1524,
      "pping": 1525,
      "ived": 1526,
      "Ġcourse": 1527,
      "Ġarea": 1528,
      "Ġgovernment": 1529,
      "ajor": 1530,
      "atter": 1531,
      "ified": 1532,
      "co": 1533,
      "Ġpop": 1534,
      "une": 1535,
      "Ġaff": 1536,
      "St": 1537,
      "Ġdata": 1538,
      "ane": 1539,
      "Ġmar": 1540,
      "iting": 1541,
      "Ġcustom": 1542,
      "ON": 1543,
      "Ġlight": 1544,
      "Ġword": 1545,
      "ges": 1546,
      "Ġexpect": 1547,
      "uthor": 1548,
      "work": 1549,
      "Ġname": 1550,
      "Ġlocal": 1551,
      "Ġnews": 1552,
      "Ġfar": 1553,
      "ruct": 1554,
      "Ġline": 1555,
      "Ġmillion": 1556,
      "Ġspecial": 1557,
      "Ġsing": 1558,
      "rop": 1559,
      "utes": 1560,
      "let": 1561,
      "iven": 1562,
      "ama": 1563,
      "Ġmaking": 1564,
      "Ġtalk": 1565,
      "Ġexperience": 1566,
      "Ġdr": 1567,
      "Ġdep": 1568,
      "Ġcap": 1569,
      "ivid": 1570,
      "ories": 1571,
      "!!": 1572,
      "Ġwithin": 1573,
      "iron": 1574,
      "mber": 1575,
      "Ġsal": 1576,
      "of": 1577,
      "Ġtru": 1578,
      "Ġkind": 1579,
      "ider": 1580,
      "por": 1581,
      "Ġwhy": 1582,
      "Ġdra": 1583,
      "Ġcame": 1584,
      "Ġfood": 1585,
      "Ġchange": 1586,
      "ording": 1587,
      "'ll": 1588,
      "Ġchang": 1589,
      "ĠCar": 1590,
      "Ġlarge": 1591,
      "Ġenough": 1592,
      "ready": 1593,
      "Ġever": 1594,
      "ox": 1595,
      "Ġcamp": 1596,
      "aim": 1597,
      "icle": 1598,
      "Ġcalled": 1599,
      "2010": 1600,
      "Ġmoney": 1601,
      "Ġaccess": 1602,
      "Ġtimes": 1603,
      "ĠTr": 1604,
      "Ġequ": 1605,
      "ids": 1606,
      "ries": 1607,
      "uff": 1608,
      "ored": 1609,
      "Ġstory": 1610,
      "Ġworking": 1611,
      "Ġconst": 1612,
      "Ġair": 1613,
      "itions": 1614,
      "Ġmembers": 1615,
      "Ġvide": 1616,
      "aring": 1617,
      "ubl": 1618,
      "eb": 1619,
      "You": 1620,
      "Ġprovide": 1621,
      "Ġeng": 1622,
      "ream": 1623,
      "Ġroom": 1624,
      "Ġevent": 1625,
      "Ġaddition": 1626,
      "ĠFl": 1627,
      "ization": 1628,
      "40": 1629,
      "ising": 1630,
      "22": 1631,
      "ĠState": 1632,
      "ither": 1633,
      "ĠAt": 1634,
      "ows": 1635,
      "Ġleast": 1636,
      "Ġcountry": 1637,
      "Ġlooking": 1638,
      "As": 1639,
      "Ġmil": 1640,
      "aff": 1641,
      "Ġhaving": 1642,
      "ball": 1643,
      "Ġmen": 1644,
      "artment": 1645,
      "ery": 1646,
      "ĠRep": 1647,
      "ĠCo": 1648,
      "Ġcommunity": 1649,
      "ĠâĢĺ": 1650,
      "ained": 1651,
      "Ġsw": 1652,
      "Ġmove": 1653,
      "Ġdone": 1654,
      "Ġsever": 1655,
      "AT": 1656,
      "Ġalready": 1657,
      "ES": 1658,
      "iety": 1659,
      "iam": 1660,
      "Ġshort": 1661,
      "ode": 1662,
      "omm": 1663,
      "irl": 1664,
      "Ġprote": 1665,
      "Ġemploy": 1666,
      "Ġintern": 1667,
      "Ġeconom": 1668,
      "Ġpract": 1669,
      "Ġwent": 1670,
      "Ġbit": 1671,
      "iday": 1672,
      "ush": 1673,
      "ĠMan": 1674,
      "100": 1675,
      "Ġtook": 1676,
      "Ġmusic": 1677,
      "Ġsuccess": 1678,
      "Ġproper": 1679,
      "ying": 1680,
      "Ġside": 1681,
      "ots": 1682,
      "gether": 1683,
      "ference": 1684,
      "Ġtogether": 1685,
      "ony": 1686,
      "Ġthought": 1687,
      "side": 1688,
      "sh": 1689,
      "aster": 1690,
      "Ġwrit": 1691,
      "Ġfund": 1692,
      "Ġmajor": 1693,
      "aut": 1694,
      "ĠTo": 1695,
      "For": 1696,
      "ĠWhat": 1697,
      "ability": 1698,
      "joy": 1699,
      "eral": 1700,
      "Ġalong": 1701,
      "Ġseveral": 1702,
      "AR": 1703,
      "Ġapplic": 1704,
      "Ġimpro": 1705,
      "ĠGod": 1706,
      "Ġwon": 1707,
      "Ġinclude": 1708,
      "AN": 1709,
      "Ġdev": 1710,
      "uro": 1711,
      "idd": 1712,
      "Ġactiv": 1713,
      "ials": 1714,
      "Ġfive": 1715,
      "for": 1716,
      "Ġocc": 1717,
      "ump": 1718,
      "ills": 1719,
      "ern": 1720,
      "23": 1721,
      "ober": 1722,
      "Ġtold": 1723,
      "ians": 1724,
      "use": 1725,
      "60": 1726,
      "ĠWhen": 1727,
      "Ġes": 1728,
      "Ġpa": 1729,
      "Ġoften": 1730,
      "Ġmean": 1731,
      "Ġdoing": 1732,
      "Ġcomplete": 1733,
      "Ġreturn": 1734,
      "ĠMy": 1735,
      "Ġdoesn": 1736,
      "Ġonline": 1737,
      "Ġservices": 1738,
      "Ġcontrol": 1739,
      "app": 1740,
      "Ġcou": 1741,
      "Ġbecome": 1742,
      "Ġwomen": 1743,
      "ĠUnited": 1744,
      "most": 1745,
      "ris": 1746,
      "ients": 1747,
      "Ġgetting": 1748,
      "avor": 1749,
      "OR": 1750,
      "orts": 1751,
      "Ġfeat": 1752,
      "Ġfollowing": 1753,
      "used": 1754,
      "Ġcond": 1755,
      "acy": 1756,
      "Ġeduc": 1757,
      "Ġunderstand": 1758,
      "Ġago": 1759,
      "Ġelect": 1760,
      "Ġnon": 1761,
      "ĠEng": 1762,
      "21": 1763,
      "Ġcity": 1764,
      "ĠYork": 1765,
      "rap": 1766,
      "ched": 1767,
      "ands": 1768,
      "Ġcut": 1769,
      "Ġtax": 1770,
      "Ġmakes": 1771,
      "aps": 1772,
      "crib": 1773,
      "Ġyoung": 1774,
      "lege": 1775,
      "Ġhold": 1776,
      "Ġfore": 1777,
      "atic": 1778,
      "ĠCount": 1779,
      "Ġprofess": 1780,
      "fer": 1781,
      "ĠIntern": 1782,
      "agement": 1783,
      "Ġpolit": 1784,
      "Ġothers": 1785,
      "Ġtrad": 1786,
      "oice": 1787,
      "Ġreview": 1788,
      "Ġearly": 1789,
      "Ġyet": 1790,
      "Ġresearch": 1791,
      "ides": 1792,
      "Ġlearn": 1793,
      "ĠCan": 1794,
      "uture": 1795,
      "Ġdeal": 1796,
      "viron": 1797,
      "Ġlater": 1798,
      "Ġindust": 1799,
      "ĠMed": 1800,
      "ring": 1801,
      "Ġcertain": 1802,
      "Ġlive": 1803,
      "ances": 1804,
      "rew": 1805,
      "ĠApp": 1806,
      "Ġwebs": 1807,
      "Ġhouse": 1808,
      "ĠSte": 1809,
      "Ġlim": 1810,
      "orld": 1811,
      "ĠBro": 1812,
      "ister": 1813,
      "not": 1814,
      "Ġhappen": 1815,
      "ourn": 1816,
      "ĠMc": 1817,
      "aken": 1818,
      "ĠSu": 1819,
      "Ġonce": 1820,
      "allen": 1821,
      "Ġcharact": 1822,
      "Ġvisit": 1823,
      "Ġwar": 1824,
      "Ġpoints": 1825,
      "2009": 1826,
      "reet": 1827,
      "And": 1828,
      "itive": 1829,
      "Ġnet": 1830,
      "Ġvers": 1831,
      "ĠÂ": 1832,
      "Ġinvol": 1833,
      "Ġorig": 1834,
      "But": 1835,
      "Ġgames": 1836,
      "ividual": 1837,
      "Ġpar": 1838,
      "lement": 1839,
      "__": 1840,
      "Ġpot": 1841,
      "ones": 1842,
      "enef": 1843,
      "What": 1844,
      "ination": 1845,
      "ĠX": 1846,
      "Ġenjoy": 1847,
      "Ġbased": 1848,
      "Ġactually": 1849,
      "Ġclear": 1850,
      "Ġpossible": 1851,
      "ler": 1852,
      "ĠPres": 1853,
      "ĠAm": 1854,
      "Ġhalf": 1855,
      "Ġla": 1856,
      "Ġwa": 1857,
      "rodu": 1858,
      "Ġquestion": 1859,
      "ĠAss": 1860,
      "Ġcheck": 1861,
      "wh": 1862,
      "Ġreason": 1863,
      "Ġcreat": 1864,
      "Ġce": 1865,
      "Ġmater": 1866,
      "Ġtre": 1867,
      "Ġappear": 1868,
      "ĠWith": 1869,
      "28": 1870,
      "Ġmonths": 1871,
      "Ġhot": 1872,
      "Ġemail": 1873,
      "Ġtreat": 1874,
      "There": 1875,
      "Ġmeans": 1876,
      "Ġfoc": 1877,
      "ging": 1878,
      "Ġproblem": 1879,
      "An": 1880,
      "oon": 1881,
      "Ġaccount": 1882,
      "Ġdiscuss": 1883,
      "Ġfield": 1884,
      "icy": 1885,
      "27": 1886,
      "Ġey": 1887,
      "Ġcompet": 1888,
      "Ġprob": 1889,
      "Ġmom": 1890,
      "Ġstarted": 1891,
      "fect": 1892,
      "ape": 1893,
      "ille": 1894,
      "inc": 1895,
      "ential": 1896,
      "Ġlow": 1897,
      "osp": 1898,
      "ĠCity": 1899,
      "ĠCal": 1900,
      "Ġpain": 1901,
      "Ġpage": 1902,
      "Ġparticular": 1903,
      "Ġauthor": 1904,
      "book": 1905,
      "ĠBr": 1906,
      "Ġopport": 1907,
      "vironment": 1908,
      "Ġfriends": 1909,
      "26": 1910,
      "Ġclose": 1911,
      "Ġneeds": 1912,
      "Ġsum": 1913,
      "ensive": 1914,
      "wards": 1915,
      "ued": 1916,
      "ource": 1917,
      "Ġvideo": 1918,
      "sw": 1919,
      "itor": 1920,
      "ograph": 1921,
      "Ġpress": 1922,
      "ĠSy": 1923,
      "fort": 1924,
      "resent": 1925,
      "Ġseen": 1926,
      "Ġgiven": 1927,
      "ĠJan": 1928,
      "urch": 1929,
      "org": 1930,
      "Ġfuture": 1931,
      "Ġprop": 1932,
      "Ġbody": 1933,
      "hers": 1934,
      "yle": 1935,
      "Ġopt": 1936,
      "Ġminutes": 1937,
      "lish": 1938,
      "Ġindividual": 1939,
      "ully": 1940,
      "Ġsix": 1941,
      "Ġstrong": 1942,
      "ĠNational": 1943,
      "iously": 1944,
      "lev": 1945,
      "idence": 1946,
      "Ġdetail": 1947,
      ".)": 1948,
      "Ġdevelopment": 1949,
      "aces": 1950,
      "Ġmind": 1951,
      "Ġblog": 1952,
      "Ġsoft": 1953,
      "oard": 1954,
      "Ġbenef": 1955,
      "Ġcontact": 1956,
      "Ġquick": 1957,
      "Ġsound": 1958,
      "unch": 1959,
      "On": 1960,
      "anks": 1961,
      "ĠEn": 1962,
      "Ġmor": 1963,
      "Ġbelieve": 1964,
      "verage": 1965,
      "urther": 1966,
      "198": 1967,
      "Ġworks": 1968,
      "Ġhours": 1969,
      "though": 1970,
      "de": 1971,
      "illed": 1972,
      "Ġcommun": 1973,
      "Ġbring": 1974,
      "urity": 1975,
      "ique": 1976,
      "Ġaut": 1977,
      "2008": 1978,
      "Ġclaim": 1979,
      "Ġcomb": 1980,
      "Ġacross": 1981,
      "ights": 1982,
      "Ġcomes": 1983,
      "ĠNe": 1984,
      "ĠPr": 1985,
      "Ġmult": 1986,
      "back": 1987,
      "ources": 1988,
      "Ġexample": 1989,
      "ĠStates": 1990,
      "par": 1991,
      "Ġeasy": 1992,
      "Ġanything": 1993,
      "Ġhuman": 1994,
      "Ġoffer": 1995,
      "Ġproducts": 1996,
      "Ġsocial": 1997,
      "AS": 1998,
      "oor": 1999,
      "over": 2000,
      "ster": 2001,
      "Ġwhether": 2002,
      "nes": 2003,
      "ĠGu": 2004,
      "Ġpriv": 2005,
      "ulation": 2006,
      "cially": 2007,
      "Ġamong": 2008,
      "ned": 2009,
      "EN": 2010,
      "Ġbegin": 2011,
      "ffic": 2012,
      "Ġfilm": 2013,
      "ĠCenter": 2014,
      "Ġredu": 2015,
      "Ġthird": 2016,
      "ĠMr": 2017,
      "ches": 2018,
      "Ġhistory": 2019,
      "year": 2020,
      "ĠEd": 2021,
      "Ġtot": 2022,
      "my": 2023,
      "Ġpersonal": 2024,
      "Ġknown": 2025,
      "ided": 2026,
      "ĠOne": 2027,
      "irc": 2028,
      "Ġvol": 2029,
      "Ġwhole": 2030,
      "iod": 2031,
      "Ġhope": 2032,
      "29": 2033,
      "opy": 2034,
      "ips": 2035,
      "Ġdeb": 2036,
      "Ġhig": 2037,
      "Ġbad": 2038,
      "Ch": 2039,
      "load": 2040,
      "Ġwebsite": 2041,
      "//": 2042,
      "Ġheart": 2043,
      "go": 2044,
      "Ġaddress": 2045,
      "ĠGr": 2046,
      "play": 2047,
      "ences": 2048,
      "ggest": 2049,
      "ibr": 2050,
      "Ġjo": 2051,
      "Ġface": 2052,
      "Ġpret": 2053,
      "ĠTw": 2054,
      "Ġwalk": 2055,
      "ĠServ": 2056,
      "Ġseries": 2057,
      "Ġconcer": 2058,
      "Ġquality": 2059,
      "ocu": 2060,
      "cial": 2061,
      "ift": 2062,
      "ĠSchool": 2063,
      "Ġident": 2064,
      "Ġshare": 2065,
      "now": 2066,
      "AL": 2067,
      "Ġkey": 2068,
      "ĠMe": 2069,
      "Ġanal": 2070,
      "ĠWill": 2071,
      "Ġeither": 2072,
      "ĠNot": 2073,
      "Ġris": 2074,
      "ps": 2075,
      "ural": 2076,
      "ilar": 2077,
      "Ġpack": 2078,
      "ĠOb": 2079,
      "Ġet": 2080,
      "ĠCounty": 2081,
      "ners": 2082,
      "itted": 2083,
      "Ġspecific": 2084,
      "ators": 2085,
      "ĠMin": 2086,
      "ĠDep": 2087,
      "Ġmess": 2088,
      "ai": 2089,
      "Ġfre": 2090,
      "Ġfront": 2091,
      "Ġbreak": 2092,
      "Ġsent": 2093,
      "ilities": 2094,
      "roll": 2095,
      "Ġmiss": 2096,
      "elt": 2097,
      "Ġasked": 2098,
      "ĠHar": 2099,
      "Ġant": 2100,
      "Ġalmost": 2101,
      "Ġsomeone": 2102,
      "Ġpie": 2103,
      "Ġdou": 2104,
      "nect": 2105,
      "pro": 2106,
      "ateg": 2107,
      "ĠEuro": 2108,
      "Ġ...": 2109,
      "Ġenc": 2110,
      "Ġabove": 2111,
      "ĠGe": 2112,
      "Ġwond": 2113,
      "lf": 2114,
      "Ġ/": 2115,
      "ĠWorld": 2116,
      "Ġrespons": 2117,
      "selves": 2118,
      "abor": 2119,
      "Ġpick": 2120,
      "Ġtrying": 2121,
      "ctor": 2122,
      "Ġpretty": 2123,
      "Ġstay": 2124,
      "Ġsuggest": 2125,
      "cri": 2126,
      "Ġcrit": 2127,
      "mb": 2128,
      "Ġtem": 2129,
      "icult": 2130,
      "Ġpubl": 2131,
      "Ġtaking": 2132,
      "Ġbelow": 2133,
      "ĠNorth": 2134,
      "pecially": 2135,
      "Ġsingle": 2136,
      "Ġsuper": 2137,
      "Ġmanag": 2138,
      "Ġeverything": 2139,
      "umb": 2140,
      "Ġport": 2141,
      "Ġitem": 2142,
      "ĠDo": 2143,
      "Ġfavor": 2144,
      "ify": 2145,
      "ĠCont": 2146,
      "room": 2147,
      "IS": 2148,
      "arter": 2149,
      "Ġprobably": 2150,
      "ĠSec": 2151,
      "Ġcreate": 2152,
      "aining": 2153,
      "://": 2154,
      "Ġage": 2155,
      "Re": 2156,
      "ĠBar": 2157,
      "ially": 2158,
      "ĠComp": 2159,
      "ief": 2160,
      "Ġbar": 2161,
      "Ġissue": 2162,
      "So": 2163,
      "Ġwatch": 2164,
      "Ġstep": 2165,
      "iol": 2166,
      "oe": 2167,
      "Ġste": 2168,
      "Ġissues": 2169,
      "utions": 2170,
      "Ġannoun": 2171,
      "Ġplease": 2172,
      "Ġcomput": 2173,
      "Ġtaken": 2174,
      "ĠThese": 2175,
      "ried": 2176,
      "Ġcompan": 2177,
      "Ġbeaut": 2178,
      "Ġwanted": 2179,
      "ilt": 2180,
      "ttp": 2181,
      "Ġener": 2182,
      "ibility": 2183,
      "af": 2184,
      "fully": 2185,
      "ĠAmerica": 2186,
      "Ġperfect": 2187,
      "Ġidea": 2188,
      "Ġhit": 2189,
      "pril": 2190,
      "Ġwind": 2191,
      "irt": 2192,
      "Ġstudy": 2193,
      "Ġmag": 2194,
      "Ġpict": 2195,
      "Ġcoming": 2196,
      "stit": 2197,
      "Ġgirl": 2198,
      "ison": 2199,
      "IT": 2200,
      "ĠSouth": 2201,
      "Ġfail": 2202,
      "yl": 2203,
      "Ġchallen": 2204,
      "Ġmedia": 2205,
      "70": 2206,
      "ĠGo": 2207,
      "Ġelse": 2208,
      "dd": 2209,
      "ĠHis": 2210,
      "right": 2211,
      "Ġcred": 2212,
      "yn": 2213,
      "rie": 2214,
      "Ġtyp": 2215,
      "hod": 2216,
      "ĠChe": 2217,
      "ederal": 2218,
      "ED": 2219,
      "Ġfall": 2220,
      "ogn": 2221,
      "time": 2222,
      "Ġentire": 2223,
      "'d": 2224,
      "Ġheld": 2225,
      "When": 2226,
      "Ġland": 2227,
      "imate": 2228,
      "gu": 2229,
      "ashing": 2230,
      "Ġrequire": 2231,
      "Ġquite": 2232,
      "Ġbuy": 2233,
      "Ġadded": 2234,
      "Ġ:": 2235,
      "ĠDav": 2236,
      "ply": 2237,
      "Ġperiod": 2238,
      "Ġz": 2239,
      "Ġrather": 2240,
      "ops": 2241,
      "ĠPresident": 2242,
      "gress": 2243,
      "irm": 2244,
      "Ġquestions": 2245,
      "Ġdeter": 2246,
      "Ġindustry": 2247,
      "uation": 2248,
      "ror": 2249,
      "Ġstore": 2250,
      "Ġmot": 2251,
      "nding": 2252,
      "ole": 2253,
      "gest": 2254,
      "atural": 2255,
      "isc": 2256,
      "ung": 2257,
      "Ġcult": 2258,
      "Ġfoot": 2259,
      "Ġaud": 2260,
      "Ġnothing": 2261,
      "Ġaccording": 2262,
      "rain": 2263,
      "Ġexc": 2264,
      "Ġparent": 2265,
      "iber": 2266,
      "ĠPer": 2267,
      "ĠEurope": 2268,
      "Ġeveryone": 2269,
      "Ġdiff": 2270,
      "ĠPe": 2271,
      "Ġphys": 2272,
      "80": 2273,
      "Ġfinal": 2274,
      "ĠJu": 2275,
      "Ġstaff": 2276,
      "Ġpurch": 2277,
      "ague": 2278,
      "itch": 2279,
      "eter": 2280,
      "Ġenvironment": 2281,
      "Ġcompl": 2282,
      "aur": 2283,
      "Ġbehind": 2284,
      "Ġresults": 2285,
      "Ġparticip": 2286,
      "off": 2287,
      "ĠOct": 2288,
      "ĠHowever": 2289,
      "Ġball": 2290,
      "IC": 2291,
      "Ġhost": 2292,
      "Ġcourt": 2293,
      "ask": 2294,
      "oose": 2295,
      "ĠSm": 2296,
      "ministr": 2297,
      "ĠTH": 2298,
      "Ġamount": 2299,
      "Ġsearch": 2300,
      "Ġhon": 2301,
      "itting": 2302,
      "Ġfurther": 2303,
      "itten": 2304,
      "Ġrepl": 2305,
      "ancial": 2306,
      "duct": 2307,
      "resh": 2308,
      "uary": 2309,
      "ĠAf": 2310,
      "Ġseems": 2311,
      "reg": 2312,
      "Ġtrack": 2313,
      "ĠAfter": 2314,
      "Ġrepresent": 2315,
      "Ġrelations": 2316,
      "Ġformer": 2317,
      "ĠDr": 2318,
      "aturday": 2319,
      "inks": 2320,
      "Ġprice": 2321,
      "....": 2322,
      "Ġposition": 2323,
      "Ġer": 2324,
      "che": 2325,
      "aced": 2326,
      "Ġhowever": 2327,
      "asing": 2328,
      "ili": 2329,
      "Ġdocu": 2330,
      "Ġoffice": 2331,
      "Ġred": 2332,
      "Ġdeath": 2333,
      "Ġmeas": 2334,
      "Ġperformance": 2335,
      "ĠMarch": 2336,
      "iff": 2337,
      "ĠJune": 2338,
      "Al": 2339,
      "Ġblack": 2340,
      "Ġisn": 2341,
      "gth": 2342,
      "ĠCor": 2343,
      "Ġconsider": 2344,
      "mit": 2345,
      "Ġcontinue": 2346,
      "Ġbuilding": 2347,
      "Ġmember": 2348,
      "lling": 2349,
      "Ġaction": 2350,
      "Ġenergy": 2351,
      "ples": 2352,
      "empt": 2353,
      "Ġcontent": 2354,
      "35": 2355,
      "Ġsoon": 2356,
      "head": 2357,
      "aul": 2358,
      "Ġcompanies": 2359,
      "vert": 2360,
      "Ġfire": 2361,
      "na": 2362,
      "2007": 2363,
      "ĠPol": 2364,
      "Ġtechnology": 2365,
      "Ġdi": 2366,
      "Ġlikely": 2367,
      "Ġplayers": 2368,
      "Ġhom": 2369,
      "To": 2370,
      "Ġattack": 2371,
      "Ġdue": 2372,
      "Ġweeks": 2373,
      "Ġspace": 2374,
      "ĠJust": 2375,
      "Ġnational": 2376,
      "Ġcommon": 2377,
      "Ġespecially": 2378,
      "ees": 2379,
      "ocr": 2380,
      "How": 2381,
      "val": 2382,
      "rug": 2383,
      "Ġtit": 2384,
      "ĠWest": 2385,
      "Ġrecomm": 2386,
      "ĠHouse": 2387,
      "Ġrecent": 2388,
      "ĠFeb": 2389,
      "Ġtravel": 2390,
      "Ġupon": 2391,
      "leased": 2392,
      "Ġproblems": 2393,
      "Ġfocus": 2394,
      "RE": 2395,
      "Ġstat": 2396,
      "Ġrecommend": 2397,
      "ĠPM": 2398,
      "ites": 2399,
      "ĠMich": 2400,
      "pper": 2401,
      "Ġtou": 2402,
      "45": 2403,
      "ĠPart": 2404,
      "Ġlink": 2405,
      "ĠQu": 2406,
      "AC": 2407,
      "Ġtool": 2408,
      "ĠAug": 2409,
      "Ġsex": 2410,
      "Ġneeded": 2411,
      "Ġansw": 2412,
      "Ġnecess": 2413,
      "ively": 2414,
      "Ġgeneral": 2415,
      "Ġtext": 2416,
      "Ġrights": 2417,
      "Ġagree": 2418,
      "ume": 2419,
      "Ġpresident": 2420,
      "ĠPark": 2421,
      "Ġground": 2422,
      "amer": 2423,
      "icro": 2424,
      "Ġrunning": 2425,
      "rict": 2426,
      "Ġparty": 2427,
      "Ġcharacter": 2428,
      "ounc": 2429,
      "Ġforward": 2430,
      "lex": 2431,
      "Ġsubject": 2432,
      "Ġreceived": 2433,
      "Ġfeatures": 2434,
      "ĠWar": 2435,
      "obal": 2436,
      "amed": 2437,
      "Ġexist": 2438,
      "Ġmatter": 2439,
      "ental": 2440,
      "Ġprovided": 2441,
      "cell": 2442,
      "olution": 2443,
      "Ġwords": 2444,
      "aching": 2445,
      "Ġcal": 2446,
      "Ġaccept": 2447,
      "ĠKe": 2448,
      "ĠAb": 2449,
      "angu": 2450,
      "ruction": 2451,
      "Ġevents": 2452,
      "raft": 2453,
      "Ġareas": 2454,
      "mp": 2455,
      "reme": 2456,
      "Ġlate": 2457,
      "ĠGl": 2458,
      "Ġweb": 2459,
      "Ġvalue": 2460,
      "Ġsaw": 2461,
      "oved": 2462,
      "Ġarticle": 2463,
      "ledge": 2464,
      "ĠFriday": 2465,
      "Ġfig": 2466,
      "ĠApril": 2467,
      "ze": 2468,
      "ires": 2469,
      "oph": 2470,
      "Ġrad": 2471,
      "iddle": 2472,
      "Ġroad": 2473,
      "ĠAct": 2474,
      "Ġupd": 2475,
      "Ġdifficult": 2476,
      "itte": 2477,
      "Ġsignific": 2478,
      "Ġtrue": 2479,
      "unday": 2480,
      "Ġrespect": 2481,
      "Ġnice": 2482,
      "Ġinj": 2483,
      "Ġanyone": 2484,
      "aign": 2485,
      "ĠSept": 2486,
      "Ġabs": 2487,
      "ival": 2488,
      "Ġsong": 2489,
      "come": 2490,
      "ĠEl": 2491,
      "iter": 2492,
      "ĠCour": 2493,
      "gle": 2494,
      "Ġ#": 2495,
      "Ġcouple": 2496,
      "Ġimprove": 2497,
      "Ġbase": 2498,
      "Ġinit": 2499,
      "eds": 2500,
      "ĠMark": 2501,
      "icated": 2502,
      "Ġcell": 2503,
      "bor": 2504,
      "Ġeducation": 2505,
      "Ġprovides": 2506,
      "Ġsimilar": 2507,
      "Ġdam": 2508,
      "Ġstri": 2509,
      "Ġtraining": 2510,
      "lebr": 2511,
      "Ġshows": 2512,
      "Ġpolitical": 2513,
      "Ġoutside": 2514,
      "ĠObama": 2515,
      "ĠDepartment": 2516,
      "Ġoffers": 2517,
      "ĠNews": 2518,
      "Ġrange": 2519,
      "ules": 2520,
      "Ġassist": 2521,
      "ST": 2522,
      "Ġgrad": 2523,
      "onday": 2524,
      "Ġincludes": 2525,
      "Ġlog": 2526,
      "ĠHer": 2527,
      "ĠDes": 2528,
      "Ġsimply": 2529,
      "Ġdescrib": 2530,
      "Ġversion": 2531,
      "sc": 2532,
      "Ġrequired": 2533,
      "ĠAust": 2534,
      "ĠNow": 2535,
      "Ġswe": 2536,
      "ĠStud": 2537,
      "Ph": 2538,
      "Ġvict": 2539,
      "ino": 2540,
      "Ġrole": 2541,
      "Ġtown": 2542,
      "ashington": 2543,
      "Ġrecently": 2544,
      "eth": 2545,
      "Ġviol": 2546,
      "cle": 2547,
      "earch": 2548,
      "Ġlost": 2549,
      "Ġcannot": 2550,
      "vent": 2551,
      "ication": 2552,
      "âĢĵ": 2553,
      "Ġprep": 2554,
      "Ġplaying": 2555,
      "lu": 2556,
      "OU": 2557,
      "Ġap": 2558,
      "Ġcard": 2559,
      "medi": 2560,
      "fact": 2561,
      "ĠInc": 2562,
      "ese": 2563,
      "Ġkids": 2564,
      "ude": 2565,
      "ĠDay": 2566,
      "Ġself": 2567,
      "Ġtakes": 2568,
      "Ġcirc": 2569,
      "ĠSaturday": 2570,
      "Ġconsum": 2571,
      "Ġtype": 2572,
      "itional": 2573,
      "ĠSpe": 2574,
      "Ġprograms": 2575,
      "Ġstop": 2576,
      "Ġattend": 2577,
      "Ġcontrib": 2578,
      "Ġestab": 2579,
      "ishing": 2580,
      "Ġmanagement": 2581,
      "ouncil": 2582,
      "oid": 2583,
      "Ġclean": 2584,
      "31": 2585,
      "iful": 2586,
      "Ġprotect": 2587,
      "Ġhttp": 2588,
      "ada": 2589,
      "Ġsimple": 2590,
      "hib": 2591,
      "aker": 2592,
      "Ġboard": 2593,
      "ournal": 2594,
      "Ġmorning": 2595,
      "ĠSen": 2596,
      "face": 2597,
      "str": 2598,
      "Ġcomment": 2599,
      "ĠJuly": 2600,
      "overed": 2601,
      "Ġhy": 2602,
      "Ġjud": 2603,
      "clus": 2604,
      "ĠBy": 2605,
      "uge": 2606,
      "hel": 2607,
      "Ġoriginal": 2608,
      "90": 2609,
      "Ġloss": 2610,
      "Ġanim": 2611,
      "ĠMore": 2612,
      "Ġtotal": 2613,
      "Ġliving": 2614,
      "Ġwhite": 2615,
      "Ġmethod": 2616,
      "Ġvot": 2617,
      "Ġleaders": 2618,
      "Ġrecogn": 2619,
      "ables": 2620,
      "Ġinde": 2621,
      "Ġoil": 2622,
      "Ġselect": 2623,
      "Ġdig": 2624,
      "ests": 2625,
      "Ġinstall": 2626,
      "ĠAssoci": 2627,
      "chie": 2628,
      "Ġwasn": 2629,
      "attle": 2630,
      "Ġphone": 2631,
      "Ġvarious": 2632,
      "Ġplayed": 2633,
      "Ġchanges": 2634,
      "ification": 2635,
      "Ġdefe": 2636,
      "Ġrisk": 2637,
      "ĠHigh": 2638,
      "Ġways": 2639,
      "Ġpolice": 2640,
      "ĠAM": 2641,
      "ovember": 2642,
      "OT": 2643,
      "like": 2644,
      "Ġsense": 2645,
      "oes": 2646,
      "Ġnetwork": 2647,
      "Ġpolicy": 2648,
      "ĠSoc": 2649,
      "Ġbott": 2650,
      "Ġgoal": 2651,
      "ecut": 2652,
      "ety": 2653,
      "Ġassoci": 2654,
      "oura": 2655,
      "Ġcover": 2656,
      "ached": 2657,
      "Ġcareer": 2658,
      "Ġill": 2659,
      "Ġmeeting": 2660,
      "Ġbegan": 2661,
      "Ġinn": 2662,
      "aily": 2663,
      "ĠTV": 2664,
      "ĠOff": 2665,
      "Ġexam": 2666,
      "erc": 2667,
      "ĠPar": 2668,
      "Ġsignificant": 2669,
      "lt": 2670,
      "ĠYour": 2671,
      "Ġleave": 2672,
      "My": 2673,
      "Ġdom": 2674,
      "hern": 2675,
      "Ġincrease": 2676,
      "ming": 2677,
      "Ġlat": 2678,
      "idge": 2679,
      "Ġsize": 2680,
      "Ġdecision": 2681,
      "ham": 2682,
      "Ġshall": 2683,
      "obile": 2684,
      "ana": 2685,
      "adem": 2686,
      "Ġthemselves": 2687,
      "Ġwide": 2688,
      "Ġrelationship": 2689,
      "itary": 2690,
      "Ġwonder": 2691,
      "Ġcook": 2692,
      "ises": 2693,
      "ael": 2694,
      "Ġcontract": 2695,
      "ĠCalif": 2696,
      "uesday": 2697,
      "apt": 2698,
      "Ġregard": 2699,
      "Ġreading": 2700,
      "ursday": 2701,
      "Ġsecurity": 2702,
      "Ġtour": 2703,
      "cast": 2704,
      "oke": 2705,
      "ville": 2706,
      "Ġens": 2707,
      "aving": 2708,
      "mon": 2709,
      "That": 2710,
      "Ġlonger": 2711,
      "Ġmother": 2712,
      "Ġbooks": 2713,
      "ĠOur": 2714,
      "anced": 2715,
      "Ġengine": 2716,
      "Ġopportunity": 2717,
      "2006": 2718,
      "cember": 2719,
      "ĠSan": 2720,
      "\".": 2721,
      "Ġcampaign": 2722,
      "Ġworked": 2723,
      "Ġdest": 2724,
      "Ġlooks": 2725,
      "icles": 2726,
      "ĠWashington": 2727,
      "Ġcreated": 2728,
      "ester": 2729,
      "oring": 2730,
      "Ġfight": 2731,
      "ession": 2732,
      "Ġprint": 2733,
      "ĠSunday": 2734,
      "ny": 2735,
      "Ġfinancial": 2736,
      "Ġmoment": 2737,
      "Ġitself": 2738,
      "ĠIm": 2739,
      "Ġhimself": 2740,
      "Ġsoftware": 2741,
      "Ġmat": 2742,
      "Ġgave": 2743,
      "Ġgen": 2744,
      "Ġpaper": 2745,
      "Ġcoll": 2746,
      "Ġhigher": 2747,
      "Ġdefin": 2748,
      "ĠSome": 2749,
      "ule": 2750,
      "Ġworth": 2751,
      "Ġstudent": 2752,
      "kend": 2753,
      "ĠPre": 2754,
      "Ġround": 2755,
      "lier": 2756,
      "Ġprivate": 2757,
      "Ġsqu": 2758,
      "ednes": 2759,
      "Ġtable": 2760,
      "ek": 2761,
      "sy": 2762,
      "Ġcurrently": 2763,
      "ĠHealth": 2764,
      "Ġbox": 2765,
      "arget": 2766,
      "ĠDon": 2767,
      "Ġsystems": 2768,
      "Ġexpress": 2769,
      "rote": 2770,
      "ĠJanuary": 2771,
      "ĠVal": 2772,
      "Ġlay": 2773,
      "ittee": 2774,
      "Ġrelease": 2775,
      "Ġappe": 2776,
      "Ġsaying": 2777,
      "Ġhands": 2778,
      "itter": 2779,
      "Ġrate": 2780,
      "Ġattempt": 2781,
      "haps": 2782,
      "Ġsurpr": 2783,
      "ĠChar": 2784,
      "based": 2785,
      "Ġchance": 2786,
      "ĠReg": 2787,
      "Ġsummer": 2788,
      "Ġneg": 2789,
      "33": 2790,
      "Ġnatural": 2791,
      "Ġetc": 2792,
      "75": 2793,
      "ma": 2794,
      "rought": 2795,
      "Ġpopular": 2796,
      "ĠGer": 2797,
      "Ġpurp": 2798,
      "AM": 2799,
      "Ġconv": 2800,
      "Ġboy": 2801,
      "Ġmodel": 2802,
      "Ġdeg": 2803,
      "Ã©": 2804,
      "Ġgoes": 2805,
      "Ġtal": 2806,
      "Ġobs": 2807,
      "Sh": 2808,
      "cing": 2809,
      "ĠAg": 2810,
      "Ġreported": 2811,
      "oud": 2812,
      "ĠSer": 2813,
      "ĠDem": 2814,
      "ruary": 2815,
      "astic": 2816,
      "atory": 2817,
      "ening": 2818,
      "ednesday": 2819,
      "Ġincluded": 2820,
      "Ġfa": 2821,
      "put": 2822,
      "izing": 2823,
      "Ġstra": 2824,
      "Ġcand": 2825,
      "ĠMon": 2826,
      "Ġdate": 2827,
      "ĠPat": 2828,
      "urg": 2829,
      "ĠRepublic": 2830,
      "Ġfast": 2831,
      "tain": 2832,
      "Ġplayer": 2833,
      "ĠMus": 2834,
      "Ġbecame": 2835,
      "ought": 2836,
      "Ġreceive": 2837,
      "Ġpers": 2838,
      "Ġwoman": 2839,
      "All": 2840,
      "ett": 2841,
      "Ġri": 2842,
      "ĠArt": 2843,
      "âĢ¢": 2844,
      "Ġteac": 2845,
      "ING": 2846,
      "rel": 2847,
      "Ġsus": 2848,
      "Ġcomputer": 2849,
      "Ġregular": 2850,
      "uel": 2851,
      "Ġusers": 2852,
      "Ġprim": 2853,
      "Ġinvolved": 2854,
      "Ġconnect": 2855,
      "Ġproperty": 2856,
      "Ġinside": 2857,
      "ky": 2858,
      "rown": 2859,
      "Ġmaterial": 2860,
      "Ġcelebr": 2861,
      "Ġextra": 2862,
      "rect": 2863,
      "Ġlives": 2864,
      "Ġclos": 2865,
      "where": 2866,
      "Ġele": 2867,
      "Ġinvestig": 2868,
      "Ġobject": 2869,
      "Ġwriting": 2870,
      "Ġdesigned": 2871,
      "Ġord": 2872,
      "ray": 2873,
      "Ġdecided": 2874,
      "Ġachie": 2875,
      "Ġcause": 2876,
      "Ġbud": 2877,
      "ams": 2878,
      "ufact": 2879,
      "Ġhear": 2880,
      "www": 2881,
      "OM": 2882,
      "Ġscreen": 2883,
      "Ġhappy": 2884,
      "Ġcool": 2885,
      "oom": 2886,
      "Ġsold": 2887,
      "Ġcollect": 2888,
      "irth": 2889,
      "Ġdrive": 2890,
      "Ġwrong": 2891,
      "ĠMonday": 2892,
      "Ġsales": 2893,
      "key": 2894,
      "ornia": 2895,
      "Ġarri": 2896,
      "Ġimpact": 2897,
      "Cl": 2898,
      "ĠDavid": 2899,
      "Ġpotential": 2900,
      "Ġpan": 2901,
      "Ġinstead": 2902,
      "Ġcustomers": 2903,
      "ĠStreet": 2904,
      "Ġdrug": 2905,
      "Ġsle": 2906,
      "Ġthroughout": 2907,
      "Ġpull": 2908,
      "Ġwritten": 2909,
      "36": 2910,
      "atives": 2911,
      "ID": 2912,
      "ĠRed": 2913,
      "aby": 2914,
      "Ġparents": 2915,
      "hood": 2916,
      "Ġready": 2917,
      "iple": 2918,
      "istic": 2919,
      "Ġgets": 2920,
      "ĠBrit": 2921,
      "ades": 2922,
      "rab": 2923,
      "asons": 2924,
      "Ġheard": 2925,
      "Ġcolor": 2926,
      "Ġapplication": 2927,
      "Ġgroups": 2928,
      "Ġcenter": 2929,
      "ĠEm": 2930,
      "alt": 2931,
      "Ġdeep": 2932,
      "Ġprior": 2933,
      "ospital": 2934,
      "iction": 2935,
      "Ġintrodu": 2936,
      "Ġinternational": 2937,
      "ux": 2938,
      "By": 2939,
      "Ġnorm": 2940,
      "irit": 2941,
      "wood": 2942,
      "Ġlangu": 2943,
      "Ġnation": 2944,
      "Ġfavorite": 2945,
      "Ġpractice": 2946,
      "Ġmovie": 2947,
      "Ġlatest": 2948,
      "Ġusually": 2949,
      "Ġdraw": 2950,
      "urance": 2951,
      "Ġstuff": 2952,
      "unt": 2953,
      "Ġmyself": 2954,
      "name": 2955,
      "Ġled": 2956,
      "With": 2957,
      "500": 2958,
      "Ġexperi": 2959,
      "Ġexcept": 2960,
      "erved": 2961,
      "Ġremember": 2962,
      "Ġexact": 2963,
      "illing": 2964,
      "Ġclick": 2965,
      "ĠAugust": 2966,
      "ĠNovember": 2967,
      "ĠSeptember": 2968,
      "Ġproduction": 2969,
      "At": 2970,
      "ĠSch": 2971,
      "Ġbrand": 2972,
      "Ġbecom": 2973,
      "Ġgrowth": 2974,
      "Ġprofessional": 2975,
      "ĠOctober": 2976,
      "Ġcomments": 2977,
      "urb": 2978,
      "Ġfair": 2979,
      "Ġmass": 2980,
      "Ġmedical": 2981,
      "sec": 2982,
      "ibrary": 2983,
      "Ġmention": 2984,
      "Ġunique": 2985,
      "ĠCollege": 2986,
      "Ġbroad": 2987,
      "Ġexpected": 2988,
      "Ġblood": 2989,
      "Ġadditional": 2990,
      "ivil": 2991,
      "Ġshot": 2992,
      "Ġdog": 2993,
      "Ġquarter": 2994,
      "Ġaw": 2995,
      "ĠCourt": 2996,
      "Ġrev": 2997,
      "Ġterms": 2998,
      "Ġfelt": 2999,
      "ĠWeb": 3000,
      "Ġimmedi": 3001,
      "Ġeconomic": 3002,
      "Ġep": 3003,
      "Ġknew": 3004,
      "ĠBlack": 3005,
      "99": 3006,
      "cy": 3007,
      "ĠPost": 3008,
      "ford": 3009,
      "ĠSw": 3010,
      "ĠAfric": 3011,
      "ological": 3012,
      "Ġbeautiful": 3013,
      "ĠJe": 3014,
      "Ġinterview": 3015,
      "Ġwrote": 3016,
      "Ġvia": 3017,
      "light": 3018,
      "ground": 3019,
      "orge": 3020,
      "onse": 3021,
      "Ġdiv": 3022,
      "Ġfresh": 3023,
      "Ġmix": 3024,
      "ĠTra": 3025,
      "Ġimm": 3026,
      "Ġx": 3027,
      "Ġ,": 3028,
      "Ġquickly": 3029,
      "bl": 3030,
      "mission": 3031,
      "su": 3032,
      "Ġsat": 3033,
      "Ġfell": 3034,
      "Ġweekend": 3035,
      "oogle": 3036,
      "LE": 3037,
      "Ġfunction": 3038,
      "ĠCalifornia": 3039,
      "Ġdetails": 3040,
      "ĠInternational": 3041,
      "ĠSci": 3042,
      "Ġcases": 3043,
      "Ġitems": 3044,
      "Ġability": 3045,
      "Ġtouch": 3046,
      "ĠPaul": 3047,
      "Ġess": 3048,
      "ration": 3049,
      "action": 3050,
      "Ġcountries": 3051,
      "Ġsend": 3052,
      "rael": 3053,
      "sp": 3054,
      "Ġdead": 3055,
      "Ġlooked": 3056,
      "Ġmid": 3057,
      "Ġsn": 3058,
      "Ġcredit": 3059,
      "Ġhor": 3060,
      "ament": 3061,
      "Ġsen": 3062,
      "Ġhol": 3063,
      "ications": 3064,
      "Ġknowledge": 3065,
      "Ġmatch": 3066,
      "Ġturned": 3067,
      "erve": 3068,
      "ĠDecember": 3069,
      "Ġtreatment": 3070,
      "ĠCong": 3071,
      "Ġinteresting": 3072,
      "avy": 3073,
      "Ġpublished": 3074,
      "Ġeyes": 3075,
      "2005": 3076,
      "field": 3077,
      "ĠInt": 3078,
      "Ġstruct": 3079,
      "Ġplans": 3080,
      "Ġfederal": 3081,
      "Ġstyle": 3082,
      "Ġband": 3083,
      "zz": 3084,
      "Ġlower": 3085,
      "Ġaffect": 3086,
      "Ġaverage": 3087,
      "ida": 3088,
      "Ġdepend": 3089,
      "inary": 3090,
      "urt": 3091,
      "Ġsens": 3092,
      "ĠTuesday": 3093,
      "Ġspeak": 3094,
      "ĠFace": 3095,
      "Ġshoot": 3096,
      "No": 3097,
      "197": 3098,
      "Ġfile": 3099,
      "Ġdecl": 3100,
      "ĠWhile": 3101,
      "Ġreleased": 3102,
      "aging": 3103,
      "Ġson": 3104,
      "Ġpark": 3105,
      "airs": 3106,
      "ĠFin": 3107,
      "ĠDirect": 3108,
      "Ġfit": 3109,
      "ls": 3110,
      "Ġbi": 3111,
      "Ġbrought": 3112,
      "ondon": 3113,
      "Ġadministr": 3114,
      "Ġimage": 3115,
      "pite": 3116,
      "ened": 3117,
      "Ġemer": 3118,
      "ĠJack": 3119,
      "ĠThursday": 3120,
      "Ġactivities": 3121,
      "bit": 3122,
      "Ġtarget": 3123,
      "New": 3124,
      "Ġuser": 3125,
      "isions": 3126,
      "Ġbed": 3127,
      "Ġdise": 3128,
      "Ġattention": 3129,
      "ald": 3130,
      "Ġstru": 3131,
      "Ġdirector": 3132,
      "ĠDis": 3133,
      "Ġlab": 3134,
      "ara": 3135,
      "ĠThen": 3136,
      "ceed": 3137,
      "Ġsett": 3138,
      "34": 3139,
      "aries": 3140,
      "Ġsepar": 3141,
      "One": 3142,
      "Ġfather": 3143,
      "Ġsource": 3144,
      "isl": 3145,
      "Ġbuilt": 3146,
      "unk": 3147,
      "?\"": 3148,
      "mitted": 3149,
      "aves": 3150,
      "Ġstandard": 3151,
      "Ġencoura": 3152,
      "ĠII": 3153,
      "ipe": 3154,
      "azing": 3155,
      "Ġrelated": 3156,
      "ĠGener": 3157,
      "just": 3158,
      "band": 3159,
      "Ġfine": 3160,
      "aint": 3161,
      "Ġyourself": 3162,
      "Ġsection": 3163,
      "orks": 3164,
      "Ġveh": 3165,
      "ĠWind": 3166,
      "uses": 3167,
      "Ġcopy": 3168,
      "ĠRom": 3169,
      "anger": 3170,
      "Ġcoun": 3171,
      "Ġleading": 3172,
      "Ġrace": 3173,
      "ica": 3174,
      "apan": 3175,
      "ĠLaw": 3176,
      "AP": 3177,
      "Ġtried": 3178,
      "Ġstates": 3179,
      "Ġfans": 3180,
      "ĠAc": 3181,
      "Ġsubs": 3182,
      "aged": 3183,
      "body": 3184,
      "Ġdocument": 3185,
      "ĠEast": 3186,
      "uted": 3187,
      "32": 3188,
      "Ġwww": 3189,
      "Ġwall": 3190,
      "Ġsafe": 3191,
      "ĠFebruary": 3192,
      "ysis": 3193,
      "Ġbank": 3194,
      "Ġhop": 3195,
      "Ġdisplay": 3196,
      "arning": 3197,
      "ĠWilliam": 3198,
      "Ġanswer": 3199,
      "Ġcat": 3200,
      "ns": 3201,
      "Ġlevels": 3202,
      "Ġnearly": 3203,
      "icks": 3204,
      "Ġsil": 3205,
      "Ġslow": 3206,
      "EC": 3207,
      "Ġstar": 3208,
      "Ġteams": 3209,
      "Ġarch": 3210,
      "Ġcomfort": 3211,
      "Ġcross": 3212,
      "urning": 3213,
      "Ġut": 3214,
      "ension": 3215,
      "Ġgiving": 3216,
      "Ġscore": 3217,
      "Ġsell": 3218,
      "ĠHere": 3219,
      "US": 3220,
      "Ġhuge": 3221,
      "raz": 3222,
      "add": 3223,
      "bum": 3224,
      "Ġpred": 3225,
      "wise": 3226,
      "Ġevidence": 3227,
      "Ġlegal": 3228,
      "Ġcosts": 3229,
      "Ġrelig": 3230,
      "ĠKing": 3231,
      "Ġseven": 3232,
      "Ġstarting": 3233,
      "ĠLa": 3234,
      "Ġcollege": 3235,
      "38": 3236,
      "ani": 3237,
      "48": 3238,
      "Ġschools": 3239,
      "Ġmach": 3240,
      "Ġwrite": 3241,
      "Ġeight": 3242,
      "ĠWednesday": 3243,
      "Ġannounced": 3244,
      "Ġbillion": 3245,
      "Ġbal": 3246,
      "idents": 3247,
      "BC": 3248,
      "Ġnecessary": 3249,
      "After": 3250,
      "ĠTHE": 3251,
      "aught": 3252,
      "Ġconditions": 3253,
      "Ġguys": 3254,
      "Ġprojects": 3255,
      "Ġthinking": 3256,
      "enty": 3257,
      "ĠNet": 3258,
      "ĠEnglish": 3259,
      "king": 3260,
      "ĠTex": 3261,
      "aughter": 3262,
      "oses": 3263,
      "Ġrequest": 3264,
      "idered": 3265,
      "ĠUs": 3266,
      "Ġmanufact": 3267,
      "ĠMor": 3268,
      "Be": 3269,
      "uate": 3270,
      "Ġwife": 3271,
      "yond": 3272,
      "Ġones": 3273,
      "Ġwhose": 3274,
      "ago": 3275,
      "imately": 3276,
      "cription": 3277,
      "Ġcup": 3278,
      "ounds": 3279,
      "Ġglobal": 3280,
      "Ġchoice": 3281,
      "Ġsaf": 3282,
      "Ġresources": 3283,
      "amb": 3284,
      "ĠWhite": 3285,
      "Ġmilitary": 3286,
      "ecause": 3287,
      "vey": 3288,
      "Ġconduct": 3289,
      "ĠIsrael": 3290,
      "Ġdoor": 3291,
      "omen": 3292,
      "Ġclub": 3293,
      "Ġ>": 3294,
      "Ġspent": 3295,
      "edd": 3296,
      "ĠInternet": 3297,
      "They": 3298,
      "55": 3299,
      "ran": 3300,
      "acing": 3301,
      "reed": 3302,
      "Ġguy": 3303,
      "Ġintegr": 3304,
      "Ġfinally": 3305,
      "ilies": 3306,
      "Ġthreat": 3307,
      "Ġpiece": 3308,
      "ĠOf": 3309,
      "ĠAnge": 3310,
      "):": 3311,
      "Ġemb": 3312,
      "ĠAdd": 3313,
      "Ġpatients": 3314,
      "usiness": 3315,
      "Ġapproach": 3316,
      "example": 3317,
      "ĠPal": 3318,
      "Ġdistrib": 3319,
      "Ġautom": 3320,
      "Ġlocated": 3321,
      "ET": 3322,
      "itc": 3323,
      "Ġinsp": 3324,
      "ales": 3325,
      "down": 3326,
      "pri": 3327,
      "Post": 3328,
      "Ġeffort": 3329,
      "Ġenter": 3330,
      "ĠAN": 3331,
      "Ġmessage": 3332,
      "arily": 3333,
      "Ġsometimes": 3334,
      "ĠFirst": 3335,
      "Ġcapt": 3336,
      "ĠBu": 3337,
      "ĠFrom": 3338,
      "Ġgreen": 3339,
      "iles": 3340,
      "estern": 3341,
      "ĠFacebook": 3342,
      "Ġreports": 3343,
      "Ġlack": 3344,
      "ĠAustral": 3345,
      "44": 3346,
      "Ġopin": 3347,
      "Ġorganization": 3348,
      "ĠCons": 3349,
      "Ġsuff": 3350,
      "Ġneigh": 3351,
      "Ġtitle": 3352,
      "fl": 3353,
      "omp": 3354,
      "Ġbudget": 3355,
      "ĠWell": 3356,
      "lim": 3357,
      "37": 3358,
      "ĠRead": 3359,
      "Ġlo": 3360,
      "____": 3361,
      "Ġinflu": 3362,
      "vis": 3363,
      "ĠLondon": 3364,
      "hold": 3365,
      "more": 3366,
      "imum": 3367,
      "IL": 3368,
      "iding": 3369,
      "Ġrespond": 3370,
      "aches": 3371,
      "Ġparts": 3372,
      "Ġfeet": 3373,
      "Ġresponse": 3374,
      "Ġhair": 3375,
      "Ġ+": 3376,
      "Ġgives": 3377,
      "Ġskin": 3378,
      "iring": 3379,
      "Ġsituation": 3380,
      "Ġfeed": 3381,
      "rig": 3382,
      "Ġideas": 3383,
      "Ġeasily": 3384,
      "Ġdark": 3385,
      "OS": 3386,
      "EL": 3387,
      "rs": 3388,
      "Ġcollection": 3389,
      "ccording": 3390,
      "Ġlearning": 3391,
      "enced": 3392,
      "Ġsche": 3393,
      "Ġwants": 3394,
      "Ġchoose": 3395,
      "gar": 3396,
      "mail": 3397,
      "196": 3398,
      "iant": 3399,
      "Ġtast": 3400,
      "Ġsun": 3401,
      "Ġdownload": 3402,
      "ĠGerman": 3403,
      "Ġdoll": 3404,
      "ĠSim": 3405,
      "Ġearlier": 3406,
      "lying": 3407,
      "ĠAir": 3408,
      "Ġdoub": 3409,
      "Ġten": 3410,
      "Ġtalking": 3411,
      "board": 3412,
      "Ġcompletely": 3413,
      "omb": 3414,
      "Ġcamer": 3415,
      "Ġconsidered": 3416,
      "osition": 3417,
      "ĠJapan": 3418,
      "2004": 3419,
      "Ġrout": 3420,
      "itation": 3421,
      "ags": 3422,
      "Ġmaybe": 3423,
      "Ġbill": 3424,
      "erry": 3425,
      "ĠUp": 3426,
      "Ġweight": 3427,
      "duc": 3428,
      "mas": 3429,
      "ecutive": 3430,
      "iment": 3431,
      "Ġstories": 3432,
      "aper": 3433,
      "aly": 3434,
      "Ġvariety": 3435,
      "Ġprevent": 3436,
      "Ġlimited": 3437,
      "Ġfeature": 3438,
      "uk": 3439,
      "Ġaward": 3440,
      "Ġmis": 3441,
      "ĠGreen": 3442,
      "ĠAssociation": 3443,
      "ĠService": 3444,
      "olf": 3445,
      "ĠChurch": 3446,
      "Ġtick": 3447,
      "ĠMichael": 3448,
      "Ġsafety": 3449,
      "Ġoptions": 3450,
      "Ġgas": 3451,
      "ĠCouncil": 3452,
      "nds": 3453,
      "Ġreb": 3454,
      "Ġreve": 3455,
      "ĠGroup": 3456,
      "Ġsave": 3457,
      "Ġsort": 3458,
      "Ġhistor": 3459,
      "ĠCongress": 3460,
      "ĠRich": 3461,
      "Ġallows": 3462,
      "Ġcoach": 3463,
      "ĠJames": 3464,
      "ipment": 3465,
      "Ġimpress": 3466,
      "venue": 3467,
      "Ġlanguage": 3468,
      "ha": 3469,
      "lin": 3470,
      "stitute": 3471,
      "Ġrock": 3472,
      "Ġstren": 3473,
      "Ġcy": 3474,
      "Ġprevious": 3475,
      "Ġterm": 3476,
      "oly": 3477,
      "Ġcommer": 3478,
      "Ġgrand": 3479,
      "Ġorganiz": 3480,
      "ivity": 3481,
      "leg": 3482,
      "oday": 3483,
      "Ġinstit": 3484,
      "Ġbeginning": 3485,
      "ĠHall": 3486,
      "ĠGoogle": 3487,
      "itiz": 3488,
      "rench": 3489,
      "Ġalbum": 3490,
      "ĠChina": 3491,
      "Ġcouldn": 3492,
      "OL": 3493,
      "Ġdirectly": 3494,
      "ION": 3495,
      "ĠTexas": 3496,
      "Ġnature": 3497,
      "Ġinterested": 3498,
      "ĠMac": 3499,
      "Ġphotos": 3500,
      "Ġcode": 3501,
      "anch": 3502,
      "Ġprogress": 3503,
      "pm": 3504,
      "Ġforce": 3505,
      "agn": 3506,
      "Ġbirth": 3507,
      "Ġple": 3508,
      "see": 3509,
      "Ġblock": 3510,
      "Ġexcell": 3511,
      "39": 3512,
      "Ġstock": 3513,
      "ĠEar": 3514,
      "Ġsites": 3515,
      "rows": 3516,
      "ibly": 3517,
      "05": 3518,
      "Ġrestaur": 3519,
      "arc": 3520,
      "wide": 3521,
      "Ġallowed": 3522,
      "2000": 3523,
      "Ġscient": 3524,
      "ĠProgram": 3525,
      "ĠBill": 3526,
      "49": 3527,
      "Ġlic": 3528,
      "Ġ*": 3529,
      "Ġnumbers": 3530,
      "IG": 3531,
      "Ġskills": 3532,
      "ancy": 3533,
      "Ġconsist": 3534,
      "Ġpicture": 3535,
      "Ġflow": 3536,
      "ĠOh": 3537,
      "iced": 3538,
      "Ġmodern": 3539,
      "ears": 3540,
      "inner": 3541,
      "Ġden": 3542,
      "Our": 3543,
      "Ġimplement": 3544,
      "Ġcandid": 3545,
      "Ġmount": 3546,
      "Ġimag": 3547,
      "08": 3548,
      "Ġwarm": 3549,
      "Ġspeed": 3550,
      "ampions": 3551,
      "Ġprot": 3552,
      "ocks": 3553,
      "Ġwait": 3554,
      "iance": 3555,
      "Ġextreme": 3556,
      "Ġbenefits": 3557,
      "Ġcarry": 3558,
      "Ġgun": 3559,
      "Ġstraight": 3560,
      "Ġdire": 3561,
      "Ġeconomy": 3562,
      "het": 3563,
      "sych": 3564,
      "itely": 3565,
      "iers": 3566,
      "Ġnote": 3567,
      "Ġappl": 3568,
      "ĠRober": 3569,
      "Ġstatement": 3570,
      "Ġmiddle": 3571,
      "ĠDemocr": 3572,
      "Ġoccur": 3573,
      "oul": 3574,
      "osing": 3575,
      "Ġmoved": 3576,
      "Ġtrip": 3577,
      "Ġlocation": 3578,
      "Ġdress": 3579,
      "Ġhous": 3580,
      "Ġhappened": 3581,
      "ares": 3582,
      "Ġvac": 3583,
      "ĠOffice": 3584,
      "Ġalthough": 3585,
      "AD": 3586,
      "rim": 3587,
      "Ġdro": 3588,
      "Ġfix": 3589,
      "Ġfirm": 3590,
      "ords": 3591,
      "De": 3592,
      "ength": 3593,
      "rem": 3594,
      "Ġserious": 3595,
      "She": 3596,
      "ault": 3597,
      "Ġeffective": 3598,
      "Ġplant": 3599,
      "Ġnamed": 3600,
      "Ġofficials": 3601,
      "Ġfamilies": 3602,
      "ĠJew": 3603,
      "atever": 3604,
      "unities": 3605,
      "undred": 3606,
      "Ġpaid": 3607,
      "ports": 3608,
      "sequ": 3609,
      "ĠFlor": 3610,
      "ĠOp": 3611,
      "ography": 3612,
      "rences": 3613,
      "Ġqual": 3614,
      "ĠAre": 3615,
      "Ġamazing": 3616,
      "Ġproviding": 3617,
      "Ġdemon": 3618,
      "Ġthous": 3619,
      "Ġlif": 3620,
      "ĠBoard": 3621,
      "asc": 3622,
      "Ġgrowing": 3623,
      "Ġstage": 3624,
      "Ġdeveloped": 3625,
      "Ġpromot": 3626,
      "09": 3627,
      "46": 3628,
      "ĠSuper": 3629,
      "ulations": 3630,
      "Ġprices": 3631,
      "Ġofficial": 3632,
      "Ġpath": 3633,
      "Ġensure": 3634,
      "Ġinstru": 3635,
      "iable": 3636,
      "Ġcertainly": 3637,
      "01": 3638,
      "Now": 3639,
      "Ġlik": 3640,
      "Ġconvers": 3641,
      "Ġcorrect": 3642,
      "Ġwish": 3643,
      "Ġparticularly": 3644,
      "ager": 3645,
      "Ġbrother": 3646,
      "ĠPlease": 3647,
      "Ġregion": 3648,
      "Ġdevice": 3649,
      "Ġconne": 3650,
      "ĠMet": 3651,
      "Ġtrade": 3652,
      "ĠOut": 3653,
      "Ġpen": 3654,
      "Ġscience": 3655,
      "Ġdaily": 3656,
      "Ġindepend": 3657,
      "Ġtrust": 3658,
      "Ġfloor": 3659,
      "Ġphysical": 3660,
      "Ġdistrict": 3661,
      "Ġgold": 3662,
      "Ġconference": 3663,
      "Ġpartners": 3664,
      "Ġbeyond": 3665,
      "Ġdifference": 3666,
      "Ġplaces": 3667,
      "Ġposted": 3668,
      "ĠMart": 3669,
      "Ġcancer": 3670,
      "Ġjobs": 3671,
      "Ġexactly": 3672,
      "Ġeffic": 3673,
      "Ġannual": 3674,
      "Ġeat": 3675,
      "Ġgone": 3676,
      "Ġefforts": 3677,
      "opping": 3678,
      "Ġreach": 3679,
      "PS": 3680,
      "ously": 3681,
      "Ġsuccessful": 3682,
      "ashion": 3683,
      "ston": 3684,
      "Ġemployees": 3685,
      "Ġserved": 3686,
      "More": 3687,
      "Ġsurv": 3688,
      "useum": 3689,
      "Ġappropri": 3690,
      "coming": 3691,
      "Ġalone": 3692,
      "Ġextend": 3693,
      "ĠEvery": 3694,
      "Ġconcept": 3695,
      "ĠSpr": 3696,
      "Ġver": 3697,
      "Ġult": 3698,
      "Ġmoving": 3699,
      "EO": 3700,
      "Ġadvant": 3701,
      "Ġhighly": 3702,
      "Ġcomplex": 3703,
      "Ġdemand": 3704,
      "mm": 3705,
      "ĠGreat": 3706,
      "Ġpositive": 3707,
      "Ġadult": 3708,
      "Ġoverall": 3709,
      "ĠIndian": 3710,
      "ĠEven": 3711,
      "rast": 3712,
      "Ġpoor": 3713,
      "47": 3714,
      "ĠGeneral": 3715,
      "Ġpurchase": 3716,
      "Ġruns": 3717,
      "ĠBook": 3718,
      "ĠPublic": 3719,
      "olic": 3720,
      "ĠAlso": 3721,
      "Ġspot": 3722,
      "Ġshown": 3723,
      "ĠProf": 3724,
      "Ġaware": 3725,
      "Un": 3726,
      "orrow": 3727,
      "ĠChristian": 3728,
      "Ġdouble": 3729,
      "gers": 3730,
      "Ġvoice": 3731,
      "ils": 3732,
      "ipping": 3733,
      "ĠTechn": 3734,
      "ĠIN": 3735,
      "ĠBig": 3736,
      "inated": 3737,
      "Ġchanged": 3738,
      "ĠTrans": 3739,
      "Ġbur": 3740,
      "iled": 3741,
      "akers": 3742,
      "ocol": 3743,
      "\",": 3744,
      "2003": 3745,
      "force": 3746,
      "Ġhus": 3747,
      "Ġcapital": 3748,
      "Ġimages": 3749,
      "Ġphoto": 3750,
      "Ġdisease": 3751,
      "reci": 3752,
      "07": 3753,
      "icago": 3754,
      "ĠMary": 3755,
      "ari": 3756,
      "ĠUK": 3757,
      "ĠMem": 3758,
      "Ġobv": 3759,
      "Ġded": 3760,
      "Ġcorpor": 3761,
      "Pro": 3762,
      "Ġprem": 3763,
      "Ġge": 3764,
      "olute": 3765,
      "Ex": 3766,
      "Ġdetermin": 3767,
      "rief": 3768,
      "Ġhotel": 3769,
      "Ġapplications": 3770,
      "Ġbaby": 3771,
      "ĠMost": 3772,
      "IV": 3773,
      "ĠFe": 3774,
      "Ġaltern": 3775,
      "Ġremain": 3776,
      "Ġeffects": 3777,
      "arr": 3778,
      "Ġlegisl": 3779,
      "ĠPlay": 3780,
      "rian": 3781,
      "ki": 3782,
      "ĠEduc": 3783,
      "Ġchurch": 3784,
      "ĠResearch": 3785,
      "encies": 3786,
      "Ġsom": 3787,
      "hest": 3788,
      "Ġperhaps": 3789,
      "aled": 3790,
      "ĠServices": 3791,
      "Ġpressure": 3792,
      "atform": 3793,
      "Ġwel": 3794,
      "Ġspirit": 3795,
      "Ġvote": 3796,
      "Ġfinished": 3797,
      "Ġbehav": 3798,
      "inger": 3799,
      "Ġoption": 3800,
      "Ġserve": 3801,
      "Ġdream": 3802,
      "ady": 3803,
      "ĠAnn": 3804,
      "Ġavoid": 3805,
      "Ġrules": 3806,
      "men": 3807,
      "inally": 3808,
      "Ġfarm": 3809,
      "Ar": 3810,
      "Ġdrop": 3811,
      "mark": 3812,
      "Ġcondition": 3813,
      "ĠHot": 3814,
      "Ġdied": 3815,
      "Ġroll": 3816,
      "Ġund": 3817,
      "ĠSystem": 3818,
      "ipp": 3819,
      "Ġspend": 3820,
      "Ġfollowed": 3821,
      "vest": 3822,
      "Here": 3823,
      "ronic": 3824,
      "Ġfeeling": 3825,
      "Ġcharge": 3826,
      "Ġmultiple": 3827,
      "Ġbottom": 3828,
      "Ġincreased": 3829,
      "ĠSmith": 3830,
      "change": 3831,
      "vin": 3832,
      "iller": 3833,
      "izes": 3834,
      "set": 3835,
      "ico": 3836,
      "ĠInst": 3837,
      "Ġtraditional": 3838,
      "Ġinform": 3839,
      "Ġwouldn": 3840,
      "Ġacqu": 3841,
      "Ġmiles": 3842,
      "apter": 3843,
      "Ġfrequ": 3844,
      "Ġdefense": 3845,
      "Ġcivil": 3846,
      "Ġplanning": 3847,
      "raw": 3848,
      "ĠJes": 3849,
      "Ġcustomer": 3850,
      "dom": 3851,
      "aling": 3852,
      "Ġren": 3853,
      "Ġheat": 3854,
      "umn": 3855,
      "ĠPress": 3856,
      "Ġoffered": 3857,
      "?âĢĿ": 3858,
      "Ġdisp": 3859,
      "ĠCommission": 3860,
      "ĠLet": 3861,
      "sey": 3862,
      "Ġmobile": 3863,
      "arden": 3864,
      "ĠLou": 3865,
      "chan": 3866,
      "AA": 3867,
      "nded": 3868,
      "Ġeye": 3869,
      "Ġgoals": 3870,
      "with": 3871,
      "Ġactivity": 3872,
      "ĠRec": 3873,
      "Ġwood": 3874,
      "Ġtools": 3875,
      "Ġliter": 3876,
      "Ġrefer": 3877,
      "Ġmaterials": 3878,
      "mat": 3879,
      "ĠCle": 3880,
      "06": 3881,
      "Ġimmediately": 3882,
      "ĠFound": 3883,
      "Ġuses": 3884,
      "ĠMiss": 3885,
      "ĠApple": 3886,
      "Ġhelped": 3887,
      "azine": 3888,
      "Ġargu": 3889,
      "Ġhundred": 3890,
      "Ġpet": 3891,
      "ĠGood": 3892,
      "ĠBrown": 3893,
      "ĠFlorida": 3894,
      "ipped": 3895,
      "ĠInter": 3896,
      "que": 3897,
      "icip": 3898,
      "Ġlines": 3899,
      "Ġbeat": 3900,
      "Ġcontinued": 3901,
      "Ġprec": 3902,
      "ĠEuropean": 3903,
      "ander": 3904,
      "Ġanalysis": 3905,
      "Ġmarketing": 3906,
      "istry": 3907,
      "ĠPort": 3908,
      "hips": 3909,
      "ĠHome": 3910,
      "Ġdisapp": 3911,
      "Ġhaven": 3912,
      "Ġfully": 3913,
      "ado": 3914,
      "iation": 3915,
      "Is": 3916,
      "Ġdemonstr": 3917,
      "Ġgovern": 3918,
      "Ġtowards": 3919,
      "Ġguess": 3920,
      "Ġequipment": 3921,
      "house": 3922,
      "iling": 3923,
      "ĠPhil": 3924,
      "ĠBusiness": 3925,
      "ĠDel": 3926,
      "Ġdrink": 3927,
      "Ġdigital": 3928,
      "Ġpurpose": 3929,
      "ota": 3930,
      "Ġfan": 3931,
      "Ġtrou": 3932,
      "Ġincreasing": 3933,
      "Ġdegree": 3934,
      "ĠBen": 3935,
      "ses": 3936,
      "ĠWindows": 3937,
      "soft": 3938,
      "order": 3939,
      "Ġrates": 3940,
      "Ġbenefit": 3941,
      "Ġcast": 3942,
      "Se": 3943,
      "Ġstrugg": 3944,
      "ĠTimes": 3945,
      "Ġpassed": 3946,
      "Ġculture": 3947,
      "lam": 3948,
      "ĠSee": 3949,
      "ĠOther": 3950,
      "ĠCanada": 3951,
      "95": 3952,
      "Ġopening": 3953,
      "Ġbasis": 3954,
      "CC": 3955,
      "Ġlargest": 3956,
      "istrict": 3957,
      "ĠGold": 3958,
      "Ġtypes": 3959,
      "ĠEv": 3960,
      "Ġjump": 3961,
      "unte": 3962,
      "ĠRob": 3963,
      "Ġslight": 3964,
      "Ġkept": 3965,
      "ech": 3966,
      "Ġsleep": 3967,
      "Ġletter": 3968,
      "ona": 3969,
      "Ġtoward": 3970,
      "Ġresponsible": 3971,
      "ĠTwitter": 3972,
      "anta": 3973,
      "bon": 3974,
      "Ġowners": 3975,
      "04": 3976,
      "Ġpow": 3977,
      "Ġaren": 3978,
      "ĠAnt": 3979,
      "Ġindic": 3980,
      "Ġahead": 3981,
      "ĠSun": 3982,
      "ĠOF": 3983,
      "Ġreflect": 3984,
      "**": 3985,
      "Ġfem": 3986,
      "lished": 3987,
      "Ġbeg": 3988,
      "well": 3989,
      "Ġinsurance": 3990,
      "Ġachieve": 3991,
      "inn": 3992,
      "While": 3993,
      "Ġconc": 3994,
      "ustr": 3995,
      "ĠBritish": 3996,
      "Ġsenior": 3997,
      "Ġhusband": 3998,
      "rey": 3999,
      "Ġexerc": 4000,
      "ĠAny": 4001,
      "ĠBay": 4002,
      "Ġborn": 4003,
      "ĠMag": 4004,
      "Ġsolution": 4005,
      "Ġload": 4006,
      "Ġpages": 4007,
      "ĠSam": 4008,
      "iny": 4009,
      "Ġindividuals": 4010,
      "hens": 4011,
      "antly": 4012,
      "Ġcateg": 4013,
      "Ġknows": 4014,
      "berg": 4015,
      "ĠIS": 4016,
      "opped": 4017,
      "ĠDevelop": 4018,
      "ruit": 4019,
      "aven": 4020,
      "DA": 4021,
      "Ġjoin": 4022,
      "bed": 4023,
      "cks": 4024,
      "Ġrepe": 4025,
      "Ġfaith": 4026,
      "Ġadvert": 4027,
      "ervation": 4028,
      "irgin": 4029,
      "Ġfiles": 4030,
      "ĠChicago": 4031,
      "Ġpopulation": 4032,
      "Ġwild": 4033,
      "Ġmeaning": 4034,
      "Ġopportunities": 4035,
      "owl": 4036,
      "65": 4037,
      "Ġmeasure": 4038,
      "Ġexcellent": 4039,
      "Ġapply": 4040,
      "Ġtemper": 4041,
      "42": 4042,
      "Ġgreater": 4043,
      "Not": 4044,
      "Ġfat": 4045,
      "ube": 4046,
      "lor": 4047,
      "Ġactive": 4048,
      "Ġanaly": 4049,
      "ĠDec": 4050,
      "Ġappreci": 4051,
      "ĠRock": 4052,
      "rees": 4053,
      "Ġsale": 4054,
      "Ġreasons": 4055,
      "Ġnormal": 4056,
      "Ġ@": 4057,
      "ĠChristmas": 4058,
      "ĠInstitute": 4059,
      "Ġcert": 4060,
      "Ġhospital": 4061,
      "rial": 4062,
      "02": 4063,
      "Ġfigure": 4064,
      "Ġprefer": 4065,
      "net": 4066,
      "Ġmanager": 4067,
      "ĠMicro": 4068,
      "ĠCommittee": 4069,
      "ancing": 4070,
      "ĠTom": 4071,
      "rowd": 4072,
      "TS": 4073,
      "Ġpattern": 4074,
      "03": 4075,
      "Ġsubst": 4076,
      "Ġ=": 4077,
      "ĠFrench": 4078,
      "Ġcalls": 4079,
      "TH": 4080,
      "Ġpictures": 4081,
      "Posted": 4082,
      "ĠFranc": 4083,
      ");": 4084,
      "ĠFree": 4085,
      "Ġinnov": 4086,
      "ĠRoad": 4087,
      "itude": 4088,
      "isco": 4089,
      "Â®": 4090,
      "Ġstudies": 4091,
      "udd": 4092,
      "Ġchallenge": 4093,
      "Ġfra": 4094,
      "Ġspring": 4095,
      "ĠIsland": 4096,
      "rant": 4097,
      "Ġnames": 4098,
      "using": 4099,
      "2002": 4100,
      "Ġton": 4101,
      "Ġsports": 4102,
      "mine": 4103,
      "Ġdefinitely": 4104,
      "itable": 4105,
      "uled": 4106,
      "Ġwonderful": 4107,
      "Ġdry": 4108,
      "Don": 4109,
      "Ġdaughter": 4110,
      "Ġunderstanding": 4111,
      "gal": 4112,
      "Ġseemed": 4113,
      "Ġoccas": 4114,
      "ĠPet": 4115,
      "Ġcitiz": 4116,
      "osh": 4117,
      "ĠAmericans": 4118,
      "Ġwat": 4119,
      "but": 4120,
      "Ġleader": 4121,
      "ĠCompany": 4122,
      "itar": 4123,
      "Ġcold": 4124,
      "itz": 4125,
      "ĠPri": 4126,
      "Ġsociety": 4127,
      "Ġconsult": 4128,
      "Ġexpand": 4129,
      "300": 4130,
      "ĠGeorge": 4131,
      "Ġfootball": 4132,
      "Ġglass": 4133,
      "Ġlearned": 4134,
      "Ġtruth": 4135,
      "ken": 4136,
      "Ġworkers": 4137,
      "ĠâĢ¦": 4138,
      "From": 4139,
      "ĠWhy": 4140,
      "Ġadop": 4141,
      "ims": 4142,
      "ulated": 4143,
      "Con": 4144,
      "Ġgrant": 4145,
      "OP": 4146,
      "Ġcommercial": 4147,
      "Ġbusinesses": 4148,
      "Ġnotice": 4149,
      "Ġsecret": 4150,
      "Ġble": 4151,
      "Ġbasic": 4152,
      "Ġseeing": 4153,
      "Ġcharacters": 4154,
      "ĠPC": 4155,
      "reak": 4156,
      "Ġfinish": 4157,
      "omas": 4158,
      "ĠClub": 4159,
      "Ġassess": 4160,
      "ae": 4161,
      "inter": 4162,
      "mar": 4163,
      "Ġadvice": 4164,
      "RA": 4165,
      "Ġdescribed": 4166,
      "IM": 4167,
      "ĠRuss": 4168,
      "ĠRiver": 4169,
      "riage": 4170,
      "atively": 4171,
      "CH": 4172,
      "Ġpeace": 4173,
      "Ġpros": 4174,
      "levision": 4175,
      "ented": 4176,
      "ĠCamp": 4177,
      "May": 4178,
      "Ġlarger": 4179,
      "Ġcreating": 4180,
      "Ġspread": 4181,
      "2001": 4182,
      "ĠIndia": 4183,
      "Ġonto": 4184,
      "Ġspending": 4185,
      "itect": 4186,
      "ĠBel": 4187,
      "Ġsomew": 4188,
      "arant": 4189,
      "Ġmovement": 4190,
      "oms": 4191,
      "Ġblue": 4192,
      "Ġplatform": 4193,
      "ĠClass": 4194,
      "Ġgra": 4195,
      "Ġdamage": 4196,
      "outhern": 4197,
      "ucky": 4198,
      "Ġcamera": 4199,
      "za": 4200,
      "Ġcentury": 4201,
      "ĠDirector": 4202,
      "Ġsweet": 4203,
      "istics": 4204,
      "isf": 4205,
      "Ġmer": 4206,
      "part": 4207,
      "rupt": 4208,
      "Ġgirls": 4209,
      "place": 4210,
      "ĠHist": 4211,
      "uty": 4212,
      "Ġreduce": 4213,
      "pects": 4214,
      "Ġcolle": 4215,
      "ĠDistrict": 4216,
      "Ġscene": 4217,
      "Ġhealthy": 4218,
      "igned": 4219,
      "uman": 4220,
      "Ġbiggest": 4221,
      "ivery": 4222,
      "ooth": 4223,
      "Ġgar": 4224,
      "Ġhelps": 4225,
      "ulf": 4226,
      "oto": 4227,
      "roy": 4228,
      "Ġtransfer": 4229,
      "Ġentertain": 4230,
      "ĠMod": 4231,
      "Ġappropriate": 4232,
      "88": 4233,
      "Ġsurface": 4234,
      "esterday": 4235,
      "Ġconstruction": 4236,
      "Ġabsolute": 4237,
      "Ġnut": 4238,
      "itness": 4239,
      "tr": 4240,
      "Ġmail": 4241,
      "Ġshowed": 4242,
      "ĠLeague": 4243,
      "Ġfourth": 4244,
      "miss": 4245,
      "atab": 4246,
      "ĠRet": 4247,
      "Ġemot": 4248,
      "OW": 4249,
      "ym": 4250,
      "Ġproduce": 4251,
      "ĠEducation": 4252,
      "IP": 4253,
      "Ġchem": 4254,
      "Ġexhib": 4255,
      "Ġorganizations": 4256,
      "Ġadvantage": 4257,
      "ores": 4258,
      "Ġloved": 4259,
      "Ġcommit": 4260,
      "ĠCarol": 4261,
      "ĠBer": 4262,
      "Ġanti": 4263,
      "ĠReview": 4264,
      "Ġclin": 4265,
      "Ġstrateg": 4266,
      "Please": 4267,
      "Ġclients": 4268,
      "Ġlength": 4269,
      "ĠEngland": 4270,
      "Ġgenerally": 4271,
      "phone": 4272,
      "Ġappears": 4273,
      "Ġassociated": 4274,
      "Ġforeign": 4275,
      "olly": 4276,
      "Ġinvestment": 4277,
      "osure": 4278,
      "last": 4279,
      "semb": 4280,
      "estival": 4281,
      "Ġweather": 4282,
      "ĠMex": 4283,
      "Ġmission": 4284,
      "Ġdeliver": 4285,
      "!\"": 4286,
      "Ġestablished": 4287,
      "Ġpowerful": 4288,
      "Ġcru": 4289,
      "ocal": 4290,
      "anging": 4291,
      "ĠST": 4292,
      "Ġopinion": 4293,
      "Ġvirt": 4294,
      "Ġtruly": 4295,
      "Ġsust": 4296,
      "Ġpoll": 4297,
      "ĠSur": 4298,
      "Ġcompetition": 4299,
      "ĠBank": 4300,
      "ategy": 4301,
      "ros": 4302,
      "ĠSl": 4303,
      "Ġthrow": 4304,
      "ours": 4305,
      "Ġwhatever": 4306,
      "BS": 4307,
      "edy": 4308,
      "ties": 4309,
      "Ġproced": 4310,
      "Ġthank": 4311,
      "Ġmemory": 4312,
      "Ġsurround": 4313,
      "ĠSal": 4314,
      "Ġconstit": 4315,
      "range": 4316,
      "Last": 4317,
      "Ġaccur": 4318,
      "ĠJim": 4319,
      "ooper": 4320,
      "Ġcontain": 4321,
      "ĠMat": 4322,
      "Ġevening": 4323,
      "Ġrequirements": 4324,
      "ĠOver": 4325,
      "yan": 4326,
      "rep": 4327,
      "gen": 4328,
      "Ġearth": 4329,
      "ifying": 4330,
      "ij": 4331,
      "Ġkilled": 4332,
      "asy": 4333,
      "Ġcompared": 4334,
      "Ġdevices": 4335,
      "friend": 4336,
      "cript": 4337,
      "Ġgift": 4338,
      "Ġremains": 4339,
      "Phone": 4340,
      "unately": 4341,
      "Ġproduced": 4342,
      "rely": 4343,
      "Ġsetting": 4344,
      "ildren": 4345,
      "Ġrent": 4346,
      "Ġcompon": 4347,
      "aid": 4348,
      "Ġunit": 4349,
      "Ġdepartment": 4350,
      "Ġstatus": 4351,
      "Ne": 4352,
      "ĠMike": 4353,
      "ĠJesus": 4354,
      "Ġprimary": 4355,
      "ĠDiv": 4356,
      "ĠStar": 4357,
      "ĠSub": 4358,
      "Ġarrest": 4359,
      "ĠUSA": 4360,
      "Ġexpert": 4361,
      "Ġcrowd": 4362,
      "look": 4363,
      "amily": 4364,
      "roud": 4365,
      "Ġdiscussion": 4366,
      "Ġopened": 4367,
      "gment": 4368,
      "Ġrecords": 4369,
      "56": 4370,
      "Ġstandards": 4371,
      "Ġpresented": 4372,
      "Ġcontinu": 4373,
      "Ġclaims": 4374,
      "ĠTy": 4375,
      "Ġenh": 4376,
      "icine": 4377,
      "ĠSol": 4378,
      "Ġacadem": 4379,
      "orage": 4380,
      "Ġpatient": 4381,
      "Ab": 4382,
      "Ġclot": 4383,
      "Ġstation": 4384,
      "Ġheavy": 4385,
      "Ġsolid": 4386,
      "Ġreplace": 4387,
      "ĠMany": 4388,
      "Ġcontinues": 4389,
      "Ġtrial": 4390,
      "Some": 4391,
      "itors": 4392,
      "ulate": 4393,
      "EM": 4394,
      "term": 4395,
      "night": 4396,
      "Ġhomes": 4397,
      "ĠRel": 4398,
      "Ġplaced": 4399,
      "Ġwinning": 4400,
      "ĠÂ£": 4401,
      "Ġincome": 4402,
      "Ġdoctor": 4403,
      "ĠLord": 4404,
      "ffee": 4405,
      "Ġlinks": 4406,
      "ĠTer": 4407,
      "Ġlots": 4408,
      "oma": 4409,
      "ĠPR": 4410,
      "Ġappoint": 4411,
      "ĠScott": 4412,
      "ĠLife": 4413,
      "Ġjournal": 4414,
      "Ġfab": 4415,
      "Ġir": 4416,
      "Ġtransport": 4417,
      "Ġthanks": 4418,
      "Ġoffering": 4419,
      "Ġnove": 4420,
      "ucle": 4421,
      "ĠCD": 4422,
      "Ġneighbor": 4423,
      "point": 4424,
      "ĠHam": 4425,
      "41": 4426,
      "ĠMil": 4427,
      "annel": 4428,
      "Ġwatching": 4429,
      "Ġfear": 4430,
      "that": 4431,
      "ĠRobert": 4432,
      "Ġmax": 4433,
      "Ġelection": 4434,
      "Ġcritical": 4435,
      "Ġclearly": 4436,
      "Ġvehicle": 4437,
      "Ġradio": 4438,
      "Ġpieces": 4439,
      "Ġwine": 4440,
      "Ġeasier": 4441,
      "BA": 4442,
      "Ġowner": 4443,
      "Ġiniti": 4444,
      "Ġplus": 4445,
      "gl": 4446,
      "Ġended": 4447,
      "Ġadjust": 4448,
      "Ġclosed": 4449,
      "IA": 4450,
      "Ġexisting": 4451,
      "Ġmeant": 4452,
      "Ġestablish": 4453,
      "Ġmist": 4454,
      "Ġviews": 4455,
      "Ġdanger": 4456,
      "Ġolder": 4457,
      "Ġattract": 4458,
      "state": 4459,
      "Ġstreet": 4460,
      "These": 4461,
      "win": 4462,
      "ios": 4463,
      "ĠScience": 4464,
      "ĠInformation": 4465,
      "Ġfol": 4466,
      "istered": 4467,
      "Ġtrain": 4468,
      "UR": 4469,
      "Ġkick": 4470,
      "ĠHill": 4471,
      "inese": 4472,
      "Ġweap": 4473,
      "kn": 4474,
      "text": 4475,
      "Ġeval": 4476,
      "PA": 4477,
      "Ġrank": 4478,
      "ĠRem": 4479,
      "imb": 4480,
      "Ġwhom": 4481,
      "standing": 4482,
      "Ġsmart": 4483,
      "Ġcompleted": 4484,
      "ologies": 4485,
      "58": 4486,
      "igan": 4487,
      "Ġstick": 4488,
      "eting": 4489,
      "ette": 4490,
      "Pl": 4491,
      "ĠGovernment": 4492,
      "ĠJer": 4493,
      "ĠSince": 4494,
      "no": 4495,
      "istan": 4496,
      "Ġign": 4497,
      "Ġactual": 4498,
      "pport": 4499,
      "ĠLake": 4500,
      "43": 4501,
      "box": 4502,
      "Ġbattle": 4503,
      "orney": 4504,
      "ĠMount": 4505,
      "Ġvill": 4506,
      "Ġremind": 4507,
      "Ġcatch": 4508,
      "Ġnine": 4509,
      "Ġwaiting": 4510,
      "Ġdirection": 4511,
      "oices": 4512,
      "oves": 4513,
      "Ġfunds": 4514,
      "Ġbrain": 4515,
      "ĠGet": 4516,
      "ĠYear": 4517,
      "ĠLos": 4518,
      "kin": 4519,
      "ĠWork": 4520,
      "ĠAlex": 4521,
      "ĠJud": 4522,
      "Ġmechan": 4523,
      "âĢĿ.": 4524,
      "ĠPlan": 4525,
      "Ġfant": 4526,
      "Ġparties": 4527,
      "vention": 4528,
      "apers": 4529,
      "Ġshop": 4530,
      "Ġrule": 4531,
      "57": 4532,
      "Ġraised": 4533,
      "orial": 4534,
      "isher": 4535,
      "ĠAv": 4536,
      "Ġstrength": 4537,
      "Ġmajority": 4538,
      "which": 4539,
      "porary": 4540,
      "Ġmill": 4541,
      "Ġfish": 4542,
      "raq": 4543,
      "Ġdriving": 4544,
      "Ġagency": 4545,
      "iverse": 4546,
      "Ġcentral": 4547,
      "okes": 4548,
      "Ġcash": 4549,
      "Ġlaws": 4550,
      "ĠPeople": 4551,
      "rd": 4552,
      "oving": 4553,
      "Ġsched": 4554,
      "Ġreality": 4555,
      "ĠVirgin": 4556,
      "Ġotherwise": 4557,
      "Ġestim": 4558,
      "ads": 4559,
      "Ġhelping": 4560,
      "Ġsch": 4561,
      "dule": 4562,
      "Ġhappens": 4563,
      "Ġaudience": 4564,
      "Ġuseful": 4565,
      "ĠFrank": 4566,
      "Ġbought": 4567,
      "Ġstructure": 4568,
      "ulty": 4569,
      "acity": 4570,
      "Ġbrief": 4571,
      "Ġthus": 4572,
      "Ġpsych": 4573,
      "Ġretail": 4574,
      "Ġdespite": 4575,
      "spe": 4576,
      "ĠVol": 4577,
      "gn": 4578,
      "Ġgraph": 4579,
      "antic": 4580,
      "ugg": 4581,
      "Ġsem": 4582,
      "Ġtherefore": 4583,
      "itchen": 4584,
      "Ġhighest": 4585,
      "Ġreached": 4586,
      "ero": 4587,
      "Ġbreat": 4588,
      "Ġcommunities": 4589,
      "66": 4590,
      "Le": 4591,
      "Ġstress": 4592,
      "Ġfashion": 4593,
      "noon": 4594,
      "Ġbackground": 4595,
      "ĠCentral": 4596,
      "ĠLouis": 4597,
      "Ġpartner": 4598,
      "Ġpair": 4599,
      "oop": 4600,
      "Ġmachine": 4601,
      "ĠTime": 4602,
      "Do": 4603,
      "Ġwilling": 4604,
      "pective": 4605,
      "edding": 4606,
      "Ġice": 4607,
      "Ġprotection": 4608,
      "orter": 4609,
      "Ġregarding": 4610,
      "ius": 4611,
      "Ġarm": 4612,
      "ĠWil": 4613,
      "Ġur": 4614,
      "ĠIT": 4615,
      "Ġkid": 4616,
      "atically": 4617,
      "ĠCap": 4618,
      "ĠMcC": 4619,
      "Ġconnection": 4620,
      "how": 4621,
      "Ġcris": 4622,
      ".'": 4623,
      "Ġfinding": 4624,
      "Ġhar": 4625,
      "Ġextremely": 4626,
      "59": 4627,
      "rick": 4628,
      "Ġchair": 4629,
      "works": 4630,
      "Ġscen": 4631,
      "Ġrich": 4632,
      "Ġmur": 4633,
      "Ġreturned": 4634,
      "alls": 4635,
      "ĠFore": 4636,
      "Ġrequires": 4637,
      "ocked": 4638,
      "Ġvolunte": 4639,
      "entially": 4640,
      "Ġadministration": 4641,
      "la": 4642,
      "inate": 4643,
      "Ġleaving": 4644,
      "ĠUN": 4645,
      "Ġeth": 4646,
      "Ġpolic": 4647,
      "opyright": 4648,
      "Ġcovered": 4649,
      "Ġwear": 4650,
      "asure": 4651,
      "Ġoperations": 4652,
      "Ġstarts": 4653,
      "Bl": 4654,
      "Ġlose": 4655,
      "Ġnor": 4656,
      "Ġplays": 4657,
      "Ġpray": 4658,
      "ram": 4659,
      "ĠBecause": 4660,
      "while": 4661,
      "Ġsources": 4662,
      "etic": 4663,
      "Ġforum": 4664,
      "ĠCare": 4665,
      "bert": 4666,
      "ket": 4667,
      "kins": 4668,
      "Ġbag": 4669,
      "ĠNov": 4670,
      "ula": 4671,
      "Ġresidents": 4672,
      "cape": 4673,
      "Ġthousands": 4674,
      "ĠSum": 4675,
      "Ġflu": 4676,
      "Ġcaused": 4677,
      "ste": 4678,
      "Ġyards": 4679,
      "Ġtraffic": 4680,
      "fit": 4681,
      "press": 4682,
      "outs": 4683,
      "ĠTop": 4684,
      "ĠJournal": 4685,
      "Ġprofession": 4686,
      "overy": 4687,
      "ĠJohnson": 4688,
      "Ġapprox": 4689,
      "Ġsteps": 4690,
      "asp": 4691,
      "Ġepis": 4692,
      "Ġcontroll": 4693,
      "Ġshowing": 4694,
      "Ġrap": 4695,
      "Ġlimit": 4696,
      "Ad": 4697,
      "ĠAngeles": 4698,
      "Ġmulti": 4699,
      "SP": 4700,
      "Ġcollabor": 4701,
      "ĠMass": 4702,
      "Ġapparent": 4703,
      "ĠIraq": 4704,
      "Ġselection": 4705,
      "Ġchief": 4706,
      "ĠJoe": 4707,
      "Ġsigned": 4708,
      "Ġvs": 4709,
      "Cont": 4710,
      "Ġmentioned": 4711,
      "ĠFoundation": 4712,
      "ĠBob": 4713,
      "VD": 4714,
      "Ġminute": 4715,
      "Ġlaunch": 4716,
      "Ġagreement": 4717,
      "Ġcards": 4718,
      "Ġmicro": 4719,
      "Ġshut": 4720,
      "cont": 4721,
      "Ġrob": 4722,
      "Ġlabor": 4723,
      "Ã¢": 4724,
      "ĠLike": 4725,
      "Ġcounter": 4726,
      "ĠAustralia": 4727,
      "fast": 4728,
      "ĠUnion": 4729,
      "Ġliber": 4730,
      "ection": 4731,
      "Ġimpl": 4732,
      "esome": 4733,
      "ĠChris": 4734,
      "Ġhearing": 4735,
      "Ġunless": 4736,
      "Ġmaster": 4737,
      "gency": 4738,
      "Ġdeveloping": 4739,
      "ĠSil": 4740,
      "ĠNY": 4741,
      "ĠArch": 4742,
      "ĠiP": 4743,
      "ront": 4744,
      "Ġing": 4745,
      "ĠCommunity": 4746,
      "ĠTim": 4747,
      "Ġtend": 4748,
      "Ġcorner": 4749,
      "acks": 4750,
      "Ġbecomes": 4751,
      "77": 4752,
      "Ġfif": 4753,
      "enses": 4754,
      "Ġexclus": 4755,
      "oston": 4756,
      "ĠAtl": 4757,
      "ĠVer": 4758,
      "Ġteaching": 4759,
      "ĠHel": 4760,
      "ĠMad": 4761,
      "imal": 4762,
      "yer": 4763,
      "iest": 4764,
      "Ġnoted": 4765,
      "FL": 4766,
      "Ġsatisf": 4767,
      "Ġproud": 4768,
      "Just": 4769,
      "Ġdoubt": 4770,
      "aming": 4771,
      "ĠFire": 4772,
      "ĠSociety": 4773,
      "Ġfunding": 4774,
      "Ġvictory": 4775,
      "orry": 4776,
      "Ġship": 4777,
      "ĠWood": 4778,
      "Ġsupply": 4779,
      "Ġtelevision": 4780,
      "Ġsnow": 4781,
      "Ġafford": 4782,
      "Ġindependent": 4783,
      "Ġmodels": 4784,
      "Ġsuppl": 4785,
      "oyal": 4786,
      "Ġselected": 4787,
      "Ġminor": 4788,
      "ĠSocial": 4789,
      "ĠMal": 4790,
      "ĠManagement": 4791,
      "ception": 4792,
      "Ġprepared": 4793,
      "800": 4794,
      "reek": 4795,
      "Ġwindow": 4796,
      "Ġelectric": 4797,
      "ĠBur": 4798,
      "Ġseparate": 4799,
      "Ġsolutions": 4800,
      "ĠIll": 4801,
      "Ġharm": 4802,
      "ÃŃ": 4803,
      "iliar": 4804,
      "52": 4805,
      "Ġguide": 4806,
      "Ġclasses": 4807,
      "ĠRepublican": 4808,
      "Ġnorth": 4809,
      "Ġdetermine": 4810,
      "ka": 4811,
      "ĠAND": 4812,
      "ĠJeff": 4813,
      "estic": 4814,
      "ga": 4815,
      "ĠAfrica": 4816,
      "Ġarticles": 4817,
      "Ġran": 4818,
      "ĠDevelopment": 4819,
      "Ġnotes": 4820,
      "Well": 4821,
      "ĠTor": 4822,
      "ĠThanks": 4823,
      "Ġforms": 4824,
      "Ġentry": 4825,
      "Americ": 4826,
      "Ġstrategy": 4827,
      "do": 4828,
      "Ġadding": 4829,
      "Ġenvironmental": 4830,
      "Ġeditor": 4831,
      "ĠChinese": 4832,
      "Ġdelivery": 4833,
      "ĠMedia": 4834,
      "ĠTO": 4835,
      "400": 4836,
      "Ġspons": 4837,
      "erous": 4838,
      "??": 4839,
      "ĠDesign": 4840,
      "Ġsouth": 4841,
      "icken": 4842,
      "Ġsongs": 4843,
      "ĠProject": 4844,
      "Ġspecies": 4845,
      "Ġputting": 4846,
      "Ġarg": 4847,
      "uit": 4848,
      "ĠGrand": 4849,
      "Ġegg": 4850,
      "ĠBest": 4851,
      "ĠTwo": 4852,
      "ĠEach": 4853,
      "ĠThomas": 4854,
      "ĠAlthough": 4855,
      "ellow": 4856,
      "ĠValley": 4857,
      "Ġafternoon": 4858,
      "Ġdinner": 4859,
      "Ġprison": 4860,
      "Ġkeeping": 4861,
      "iques": 4862,
      "ĠAtt": 4863,
      "Ġforces": 4864,
      "idel": 4865,
      "Ġstream": 4866,
      "Ġban": 4867,
      "Ġdatab": 4868,
      "Ġwinter": 4869,
      "Ġyesterday": 4870,
      "ĠSand": 4871,
      "Ġcells": 4872,
      "cher": 4873,
      "ĠMicrosoft": 4874,
      "Ġlands": 4875,
      "ĠJo": 4876,
      "aked": 4877,
      "ript": 4878,
      "ĠCur": 4879,
      "ishes": 4880,
      "grad": 4881,
      "ey": 4882,
      "Ġleadership": 4883,
      "ĠYes": 4884,
      "Ġcop": 4885,
      "Ġpropos": 4886,
      "Ġartist": 4887,
      "Ġscored": 4888,
      "Ġsession": 4889,
      "ĠHol": 4890,
      "Ġtough": 4891,
      "active": 4892,
      "Ġcomfortable": 4893,
      "Ġtechnical": 4894,
      "ĠWho": 4895,
      "Ġath": 4896,
      "Ġbra": 4897,
      "Ġmaint": 4898,
      "Ġtransl": 4899,
      "Ġmonitor": 4900,
      "Ġfreed": 4901,
      "ĠCath": 4902,
      "Ġmarkets": 4903,
      "Ġrat": 4904,
      "eria": 4905,
      "ĠSenate": 4906,
      "Ġasking": 4907,
      "Ġreligious": 4908,
      "Ġclient": 4909,
      "Ġanimals": 4910,
      "ĠRad": 4911,
      "rad": 4912,
      "Ġproposed": 4913,
      "ii": 4914,
      "Ġgain": 4915,
      "resp": 4916,
      "Ġexcited": 4917,
      "odes": 4918,
      "Ġsupposed": 4919,
      "ails": 4920,
      "uries": 4921,
      "ĠMusic": 4922,
      "Ġappeared": 4923,
      "ĠEarth": 4924,
      "ĠPower": 4925,
      "ĠDet": 4926,
      "orthern": 4927,
      "inct": 4928,
      "Ġpool": 4929,
      "Ġlisted": 4930,
      "Ġpm": 4931,
      "ixt": 4932,
      "ĠBush": 4933,
      "Ġforget": 4934,
      "Ġinjury": 4935,
      "Ġslightly": 4936,
      "----": 4937,
      "Ġholiday": 4938,
      "illa": 4939,
      "Ġresist": 4940,
      "Ġbatter": 4941,
      "uke": 4942,
      "Ġcommand": 4943,
      "âĤ": 4944,
      "Ġsounds": 4945,
      "Ġguarant": 4946,
      "ĠWall": 4947,
      "ENT": 4948,
      "Ġjoined": 4949,
      "hy": 4950,
      "Ġbecoming": 4951,
      "life": 4952,
      "Ġoperating": 4953,
      "usion": 4954,
      "NA": 4955,
      "ĠLove": 4956,
      "ushed": 4957,
      "igation": 4958,
      "ĠVe": 4959,
      "Ġleague": 4960,
      "Ġearn": 4961,
      "Ġcars": 4962,
      "vere": 4963,
      "ĠUnder": 4964,
      "Ġsequ": 4965,
      "ompl": 4966,
      "rapy": 4967,
      "Ġeventually": 4968,
      "ĠParty": 4969,
      "Ġsmaller": 4970,
      "Ġcrim": 4971,
      "Ġdraft": 4972,
      "ĠOpen": 4973,
      "Ġexecutive": 4974,
      "Ġrestaurant": 4975,
      "ctors": 4976,
      "ĠMer": 4977,
      "ĠFood": 4978,
      "Ġartists": 4979,
      "ĠRichard": 4980,
      "ĠConference": 4981,
      "Ġcoverage": 4982,
      "78": 4983,
      "âĤ¬": 4984,
      "Ġdecisions": 4985,
      "going": 4986,
      "Ġtele": 4987,
      "Ġmanufacture": 4988,
      "ĠBlue": 4989,
      "levant": 4990,
      "ĠPeter": 4991,
      "Why": 4992,
      "lymp": 4993,
      "Ġtim": 4994,
      "Ġspl": 4995,
      "ini": 4996,
      "Ġvalues": 4997,
      "Ġdefend": 4998,
      "ĠiPhone": 4999,
      "Ġinternet": 5000,
      "gery": 5001,
      "tered": 5002,
      "Ġterror": 5003,
      "ĠShow": 5004,
      "Ġpredict": 5005,
      "Ġdebt": 5006,
      "ideo": 5007,
      "Ġsexual": 5008,
      "Ġnom": 5009,
      "Ġmostly": 5010,
      "Ġbalance": 5011,
      "care": 5012,
      "Ġfailed": 5013,
      "Ġincred": 5014,
      "ĠMont": 5015,
      "po": 5016,
      "Ġreaders": 5017,
      "Ġlibrary": 5018,
      "ĠOnce": 5019,
      "Ġbehavior": 5020,
      "ĠSecret": 5021,
      "IR": 5022,
      "Ġteachers": 5023,
      "Ġkill": 5024,
      "ynam": 5025,
      "ĠProfess": 5026,
      "Ġadvance": 5027,
      "Ġthr": 5028,
      "Ġgall": 5029,
      "Ġcitizens": 5030,
      "Ġfuel": 5031,
      "Ġseconds": 5032,
      "Ġbird": 5033,
      "!!!": 5034,
      "Ġtesting": 5035,
      "Me": 5036,
      "Ġfacilities": 5037,
      "Ġmap": 5038,
      "ĠJose": 5039,
      "Ġupdate": 5040,
      "Ġcreative": 5041,
      "roid": 5042,
      "eah": 5043,
      "Ġspect": 5044,
      "ait": 5045,
      "ĠAut": 5046,
      "Ġcontains": 5047,
      "Ġplenty": 5048,
      "Ġfamous": 5049,
      "Ġcalling": 5050,
      "Ġannounce": 5051,
      "can": 5052,
      "ĠTeam": 5053,
      "Ġmaintain": 5054,
      "Ġpun": 5055,
      "Ġelements": 5056,
      "Ġpresence": 5057,
      "Ġbul": 5058,
      "Ġtells": 5059,
      "Ġpackage": 5060,
      "Ġdocuments": 5061,
      "SA": 5062,
      "azz": 5063,
      "Ġposts": 5064,
      "ĠJones": 5065,
      "Ġmanaged": 5066,
      "Ġcaught": 5067,
      "LA": 5068,
      "Ġdollars": 5069,
      "ĠGame": 5070,
      "icon": 5071,
      "Ġwelcome": 5072,
      "Ġsand": 5073,
      "Ġfill": 5074,
      "Ġlisten": 5075,
      "ĠSecurity": 5076,
      "Ġforced": 5077,
      "Ġrid": 5078,
      "Ġreviews": 5079,
      "fin": 5080,
      "Ġholding": 5081,
      "ĠColor": 5082,
      "ternal": 5083,
      "Ġactions": 5084,
      "PR": 5085,
      "ena": 5086,
      "Get": 5087,
      "Ġresponsibility": 5088,
      "Ġpreviously": 5089,
      "edia": 5090,
      "known": 5091,
      "ĠVis": 5092,
      "Ġwire": 5093,
      "Ġraise": 5094,
      "Ġtaste": 5095,
      "54": 5096,
      "lands": 5097,
      "Ġcry": 5098,
      "ĠAcadem": 5099,
      "oos": 5100,
      "Ġpolicies": 5101,
      "Ġshape": 5102,
      "Ġfav": 5103,
      "Ġprinc": 5104,
      "Ġmarriage": 5105,
      "64": 5106,
      "rehens": 5107,
      "word": 5108,
      "Ġtro": 5109,
      "Ġ<": 5110,
      "Ġaim": 5111,
      "uclear": 5112,
      "Ġsugar": 5113,
      "ania": 5114,
      "burg": 5115,
      "ĠWestern": 5116,
      "Ġbutton": 5117,
      "ĠMain": 5118,
      "ship": 5119,
      "llig": 5120,
      "Ġdriver": 5121,
      "olars": 5122,
      "ograp": 5123,
      "II": 5124,
      "alled": 5125,
      "verse": 5126,
      "umber": 5127,
      "top": 5128,
      "craft": 5129,
      "fortunately": 5130,
      "Ġder": 5131,
      "Ġtree": 5132,
      "Ġpaint": 5133,
      "ĠNetwork": 5134,
      "Ġteacher": 5135,
      "ĠFederal": 5136,
      "MS": 5137,
      "ĠBoston": 5138,
      "Ġbasket": 5139,
      "ĠLibrary": 5140,
      "under": 5141,
      "you": 5142,
      "icians": 5143,
      "ĠVirginia": 5144,
      "ĠTheir": 5145,
      "Ġschedule": 5146,
      "Ġcoffee": 5147,
      "abilities": 5148,
      "Ġunc": 5149,
      "ĠPenn": 5150,
      "den": 5151,
      "CT": 5152,
      "Ġshared": 5153,
      "Ġcounty": 5154,
      "Add": 5155,
      "Ġincor": 5156,
      "wo": 5157,
      "arsh": 5158,
      "Ġconcerns": 5159,
      "ĠTre": 5160,
      "ocolate": 5161,
      "Ġchallenges": 5162,
      "Ġcircum": 5163,
      "Ġhonest": 5164,
      "enture": 5165,
      "ĠWhe": 5166,
      "Ġtight": 5167,
      "Ġrecip": 5168,
      "Ġofficer": 5169,
      "zen": 5170,
      "Ġbright": 5171,
      "arge": 5172,
      "Ġcore": 5173,
      "EW": 5174,
      "OD": 5175,
      "Ġinterp": 5176,
      "Ġoperation": 5177,
      "Ġsurvey": 5178,
      "ĠOhio": 5179,
      "SS": 5180,
      "Ġdecide": 5181,
      "ĠMot": 5182,
      "icit": 5183,
      "ĠWeek": 5184,
      "Ġreference": 5185,
      "uated": 5186,
      "free": 5187,
      "ĠBet": 5188,
      "ĠAward": 5189,
      "ĠEnter": 5190,
      "Ġarchitect": 5191,
      "Com": 5192,
      "Ġflat": 5193,
      "Ġserver": 5194,
      "Ġstorage": 5195,
      "Ġcompar": 5196,
      "ĠOlymp": 5197,
      "Ġallowing": 5198,
      "ĠDen": 5199,
      "Ġride": 5200,
      "Ġleaves": 5201,
      "ĠMartin": 5202,
      "51": 5203,
      "ĠSpecial": 5204,
      "Ġmarried": 5205,
      "ĠAfrican": 5206,
      "obe": 5207,
      "Sp": 5208,
      "Ġviolence": 5209,
      "Ġtrail": 5210,
      "53": 5211,
      "Ġfilled": 5212,
      "icing": 5213,
      "Ġlaun": 5214,
      "ression": 5215,
      "Ġconcerned": 5216,
      "Ġcart": 5217,
      "Ġmethods": 5218,
      "Ġexercise": 5219,
      "Ġexperienced": 5220,
      "oles": 5221,
      "Ġgeneration": 5222,
      "Ġaccompl": 5223,
      "nel": 5224,
      "ĠWater": 5225,
      "Ġcream": 5226,
      "cient": 5227,
      "Ġbath": 5228,
      "Ġcharges": 5229,
      "Ġclassic": 5230,
      "Ġrestrict": 5231,
      "Ġstated": 5232,
      "ournament": 5233,
      "arp": 5234,
      "Ġfactors": 5235,
      "stitution": 5236,
      "ĠToday": 5237,
      "ushing": 5238,
      "ĠJul": 5239,
      "ferences": 5240,
      "Ġspeech": 5241,
      "Ġrain": 5242,
      "uce": 5243,
      "ĠCarolina": 5244,
      "Des": 5245,
      "ĠLat": 5246,
      "ansas": 5247,
      "Ġyouth": 5248,
      "ampionship": 5249,
      "Ġnovel": 5250,
      "ĠÂ»": 5251,
      "Ġsitting": 5252,
      "osen": 5253,
      "Ġreform": 5254,
      "ownt": 5255,
      "Ġsea": 5256,
      "ĠAT": 5257,
      "Read": 5258,
      "arks": 5259,
      "1999": 5260,
      "Ġcommitted": 5261,
      "See": 5262,
      "ĠCr": 5263,
      "Ġconflic": 5264,
      ":||": 5265,
      "comp": 5266,
      "Ġbrings": 5267,
      "ĠCard": 5268,
      "Ġshooting": 5269,
      "ĠReport": 5270,
      "Ġassum": 5271,
      "Ġcorporate": 5272,
      "ĠFrance": 5273,
      "Ġalle": 5274,
      "ya": 5275,
      "Ġvision": 5276,
      "ĠBeach": 5277,
      "ĠTri": 5278,
      "Ġwalking": 5279,
      "Ġshopping": 5280,
      "Ġdebate": 5281,
      "ien": 5282,
      "Ġpractices": 5283,
      "Ġagreed": 5284,
      "Ġsport": 5285,
      "phas": 5286,
      "ĠHaw": 5287,
      "Ġplants": 5288,
      "Ġremove": 5289,
      "oted": 5290,
      "Ġsecure": 5291,
      "tion": 5292,
      "Ġthoughts": 5293,
      "Ġfocused": 5294,
      "Ġcommunication": 5295,
      "ker": 5296,
      "atures": 5297,
      "Ġrise": 5298,
      "ĠWilliams": 5299,
      "mond": 5300,
      "ĠFort": 5301,
      "Ġcapacity": 5302,
      "Ġmouth": 5303,
      "Ġconsid": 5304,
      "Ġjudge": 5305,
      "Mr": 5306,
      "Ġcommittee": 5307,
      "Ġveter": 5308,
      "UN": 5309,
      "Ġlived": 5310,
      "ourney": 5311,
      "Ġmissing": 5312,
      "nergy": 5313,
      "Ġsav": 5314,
      "ĠIr": 5315,
      "Ġintended": 5316,
      "Ġcritic": 5317,
      "ĠLast": 5318,
      "ĠStr": 5319,
      "Ġmedium": 5320,
      "Ġhandle": 5321,
      "Ġdiagn": 5322,
      "osis": 5323,
      "OC": 5324,
      "ĠAri": 5325,
      "âĦ": 5326,
      "ĠDou": 5327,
      "Ġmanage": 5328,
      "Ġdedicated": 5329,
      "Ġexperiences": 5330,
      "ĠAP": 5331,
      "Fr": 5332,
      "Ġchanging": 5333,
      "Ġwriter": 5334,
      "Ġnewsp": 5335,
      "Ġyes": 5336,
      "rive": 5337,
      "Ġvideos": 5338,
      "Ġmovies": 5339,
      "Ġdu": 5340,
      "Ġresearc": 5341,
      "Ġadvanced": 5342,
      "ĠCup": 5343,
      "ĠLong": 5344,
      "Ġinitial": 5345,
      "Ġseat": 5346,
      "Ġapart": 5347,
      "ĠWomen": 5348,
      "ifts": 5349,
      "Ġcombination": 5350,
      "Ġfacility": 5351,
      "iency": 5352,
      "coh": 5353,
      "inating": 5354,
      "Ġcampus": 5355,
      "ias": 5356,
      "ĠSteve": 5357,
      "Ġmotor": 5358,
      "Ġabsolutely": 5359,
      "ht": 5360,
      "Ġbrows": 5361,
      "Ġinfluence": 5362,
      "cles": 5363,
      "ĠCheck": 5364,
      "Ġexplain": 5365,
      "icate": 5366,
      "Ġtask": 5367,
      "Ġpanel": 5368,
      "ĠAL": 5369,
      "west": 5370,
      "Ġwitness": 5371,
      "ĠFamily": 5372,
      "ĠUse": 5373,
      "âĦ¢": 5374,
      "ĠQue": 5375,
      "ĠAdministr": 5376,
      "ĠMuseum": 5377,
      "Ġboo": 5378,
      "Ġapproximately": 5379,
      "ĠJackson": 5380,
      "Ġarrived": 5381,
      "Ġdie": 5382,
      "Ġconven": 5383,
      "Ġquiet": 5384,
      "ĠDVD": 5385,
      "Oh": 5386,
      "bo": 5387,
      "Ġstopped": 5388,
      "eed": 5389,
      "Ġstret": 5390,
      "ita": 5391,
      "Ġfamiliar": 5392,
      "Ġworse": 5393,
      "Ġsustain": 5394,
      "Ġencourage": 5395,
      "Ġelim": 5396,
      "Ġsets": 5397,
      "Ġforg": 5398,
      "ĠKn": 5399,
      "ĠRE": 5400,
      "anda": 5401,
      "Ġfemale": 5402,
      "Ġedge": 5403,
      "DF": 5404,
      "Ġbond": 5405,
      "ĠOk": 5406,
      "Ġofficers": 5407,
      "68": 5408,
      "ĠIran": 5409,
      "ĠLee": 5410,
      "Ġsector": 5411,
      "Ġnumerous": 5412,
      "ĠSing": 5413,
      "cipl": 5414,
      "lastname": 5415,
      "ola": 5416,
      "Ġresident": 5417,
      "cel": 5418,
      "Ġoccup": 5419,
      "ĠPac": 5420,
      "ĠDan": 5421,
      "Ġstores": 5422,
      "hab": 5423,
      "Ġremoved": 5424,
      "ĠPolice": 5425,
      "Ġmort": 5426,
      "Ġintellig": 5427,
      "ĠNor": 5428,
      "Ġcombined": 5429,
      "ĠNC": 5430,
      "Ġdistance": 5431,
      "Ġcab": 5432,
      "Ġapproved": 5433,
      "Ġkitchen": 5434,
      "ĠRev": 5435,
      "amin": 5436,
      "Ġveget": 5437,
      "Ġalternative": 5438,
      "Ġmine": 5439,
      "Ġwinner": 5440,
      "Ġhun": 5441,
      "ogue": 5442,
      "Ġacademic": 5443,
      "road": 5444,
      "App": 5445,
      "Ġunits": 5446,
      "Ġguard": 5447,
      "Ġworry": 5448,
      "Ġcoord": 5449,
      "rier": 5450,
      "ĠMel": 5451,
      "Ġcontest": 5452,
      "Ġclimate": 5453,
      "Ġenem": 5454,
      "istration": 5455,
      "Ġselling": 5456,
      "Ġfeels": 5457,
      "Ġsides": 5458,
      "ĠAccording": 5459,
      "Ed": 5460,
      "Ġconcent": 5461,
      "Ġserving": 5462,
      "Ġrooms": 5463,
      "Ġstanding": 5464,
      "Ġtwice": 5465,
      "ĠMedical": 5466,
      "Ġmissed": 5467,
      "unning": 5468,
      "Ġstars": 5469,
      "ĠHy": 5470,
      "ĠDown": 5471,
      "dden": 5472,
      "CE": 5473,
      "Ġeating": 5474,
      "Ġcities": 5475,
      "Ġphil": 5476,
      "Ġenjoyed": 5477,
      "ĠForm": 5478,
      "Ġformat": 5479,
      "Ġcraft": 5480,
      "Ġpassion": 5481,
      "ĠBack": 5482,
      "Ġinterests": 5483,
      "Ġassistance": 5484,
      "Ġperformed": 5485,
      "Ġanimal": 5486,
      "Ġwedding": 5487,
      "ĠDi": 5488,
      "Ġsister": 5489,
      "Qu": 5490,
      "Ġcharged": 5491,
      "According": 5492,
      "Ġcloud": 5493,
      "Ġessential": 5494,
      "Ġcrime": 5495,
      "Ġrecipe": 5496,
      "Ġhonor": 5497,
      "unction": 5498,
      "Ġtun": 5499,
      "ĠOld": 5500,
      "Ġtrouble": 5501,
      "ano": 5502,
      "Any": 5503,
      "LC": 5504,
      "actions": 5505,
      "Ġhero": 5506,
      "Ġfreedom": 5507,
      "equ": 5508,
      "ĠId": 5509,
      "Every": 5510,
      "Ġdance": 5511,
      "Ġcommission": 5512,
      "rag": 5513,
      "yr": 5514,
      "Ġbuying": 5515,
      "Ġbegins": 5516,
      "Ġpush": 5517,
      "orters": 5518,
      "unior": 5519,
      "ĠCEO": 5520,
      "Ġexpensive": 5521,
      "ĠMur": 5522,
      "bur": 5523,
      "Ġmagazine": 5524,
      "ilding": 5525,
      "Ġauthority": 5526,
      "Ġremaining": 5527,
      "ĠMichigan": 5528,
      "Ġexciting": 5529,
      "Ġapplied": 5530,
      "cean": 5531,
      "Ġju": 5532,
      "ĠAcc": 5533,
      "Ġprin": 5534,
      "ĠFund": 5535,
      "Te": 5536,
      "ocation": 5537,
      "hat": 5538,
      "Ġring": 5539,
      "ĠIslam": 5540,
      "ĠHuman": 5541,
      "ĠStand": 5542,
      "Ġmetal": 5543,
      "odd": 5544,
      "Ġguests": 5545,
      "Ġawesome": 5546,
      "Ġsty": 5547,
      "Che": 5548,
      "Ġcas": 5549,
      "ĠTown": 5550,
      "Ġtelling": 5551,
      "ĠEngine": 5552,
      "ading": 5553,
      "Ġcontext": 5554,
      "Ġmeasures": 5555,
      "odies": 5556,
      "Ġtheory": 5557,
      "Ġboys": 5558,
      "Ġdepart": 5559,
      "Ġconsumers": 5560,
      "Ġsudden": 5561,
      "Ġflex": 5562,
      "Ġconcern": 5563,
      "Your": 5564,
      "eal": 5565,
      "ivered": 5566,
      "SU": 5567,
      "Ġtopic": 5568,
      "Ġnone": 5569,
      "ĠIns": 5570,
      "Ġpoly": 5571,
      "Ġswitch": 5572,
      "Ġjoint": 5573,
      "Ġturns": 5574,
      "Ġagencies": 5575,
      "ĠFrancisco": 5576,
      "Ġdetermined": 5577,
      "Ġtips": 5578,
      "Ġpicked": 5579,
      "ĠWild": 5580,
      "ĠJon": 5581,
      "âĢĿ,": 5582,
      "ĠID": 5583,
      "ems": 5584,
      "UT": 5585,
      "met": 5586,
      "Ġdrugs": 5587,
      "Ġcrisis": 5588,
      "98": 5589,
      "ĠWal": 5590,
      "Ġleads": 5591,
      "Ġseek": 5592,
      "ĠIts": 5593,
      "mpt": 5594,
      "Ġtickets": 5595,
      "adian": 5596,
      "ĠOffic": 5597,
      "Ġtom": 5598,
      "Ġdim": 5599,
      "hand": 5600,
      "Ġhits": 5601,
      "Ġdelic": 5602,
      "ĠBoth": 5603,
      "150": 5604,
      "razy": 5605,
      "Ġelement": 5606,
      "ructure": 5607,
      "Ġmanner": 5608,
      "Ġweak": 5609,
      "Ġinvestigation": 5610,
      "ĠChief": 5611,
      "ĠRyan": 5612,
      "Ġfailure": 5613,
      "ĠMexico": 5614,
      "ĠCall": 5615,
      "Ġestate": 5616,
      "Ġintroduced": 5617,
      "water": 5618,
      "illy": 5619,
      "Ġtotally": 5620,
      "Ġlabel": 5621,
      "Ġissued": 5622,
      "iat": 5623,
      "Ġbutter": 5624,
      "Ste": 5625,
      "Ġmenu": 5626,
      "Ġconversation": 5627,
      "Ġscheduled": 5628,
      "Ġeducational": 5629,
      "Ġcultural": 5630,
      "SE": 5631,
      "secut": 5632,
      "aniel": 5633,
      "ĠDuring": 5634,
      "Ġdetect": 5635,
      "ĠSeries": 5636,
      "ĠArts": 5637,
      "ĠBo": 5638,
      "Ġrelevant": 5639,
      "ingly": 5640,
      "Ġcolors": 5641,
      "Ġfriendly": 5642,
      "Ġsharing": 5643,
      "real": 5644,
      "ician": 5645,
      "ĠSa": 5646,
      "Ġdiet": 5647,
      "ĠHen": 5648,
      "ĠFil": 5649,
      "Ġrealize": 5650,
      "ployment": 5651,
      "Ġtrib": 5652,
      "ĠSports": 5653,
      "arian": 5654,
      "ĠNOT": 5655,
      "!)": 5656,
      "ĠGermany": 5657,
      "Ġefficient": 5658,
      "ĠElect": 5659,
      "Ġcourses": 5660,
      "Ġsupported": 5661,
      "Ġteach": 5662,
      "ĠGeorg": 5663,
      "Ġamb": 5664,
      "otic": 5665,
      "ĠVict": 5666,
      "ulous": 5667,
      "Ġuns": 5668,
      "!âĢĿ": 5669,
      "Ġpurposes": 5670,
      "cluding": 5671,
      "Ġpossibly": 5672,
      "ria": 5673,
      "Ġbusy": 5674,
      "Ġneighborhood": 5675,
      "Ġsac": 5676,
      "Ġtheme": 5677,
      "Ġvisual": 5678,
      "Ġdatabase": 5679,
      "ciples": 5680,
      "ĠOnly": 5681,
      "Ġrelax": 5682,
      "ĠDivision": 5683,
      "Ġdiscovered": 5684,
      "ĠTechnology": 5685,
      "acle": 5686,
      "fficient": 5687,
      "Ġuniversity": 5688,
      "ĠDig": 5689,
      "Ġtaxes": 5690,
      "Ġsalt": 5691,
      "ĠBoy": 5692,
      "Ġfilms": 5693,
      "Ġreserved": 5694,
      "Up": 5695,
      "ĠWay": 5696,
      "Ġimproved": 5697,
      "related": 5698,
      "Ġearned": 5699,
      "Ġends": 5700,
      "Ġupdated": 5701,
      "Ġcheap": 5702,
      "Ġshots": 5703,
      "Ġconnected": 5704,
      "ev": 5705,
      "Ġdisappoint": 5706,
      "ĠSpring": 5707,
      "ĠCharl": 5708,
      "Ġdesk": 5709,
      "astern": 5710,
      "oti": 5711,
      "kes": 5712,
      "Ġtrees": 5713,
      "ĠColumb": 5714,
      "ĠMen": 5715,
      "col": 5716,
      "ĠMiddle": 5717,
      "First": 5718,
      "Ġfly": 5719,
      "Ġaccident": 5720,
      "cious": 5721,
      "ĠRights": 5722,
      "ĠSar": 5723,
      "irty": 5724,
      "ĠClick": 5725,
      "Ġtemperature": 5726,
      "ommod": 5727,
      "Ġconsumer": 5728,
      "Ġsmooth": 5729,
      "ĠJewish": 5730,
      "Ġobl": 5731,
      "Ġidentify": 5732,
      "Ġstorm": 5733,
      "Ġpregn": 5734,
      "Ġrot": 5735,
      "Ġaid": 5736,
      "Ġingred": 5737,
      "from": 5738,
      "Ġgreatest": 5739,
      "1998": 5740,
      "pected": 5741,
      "Ġpal": 5742,
      "Ġfee": 5743,
      "awn": 5744,
      "Let": 5745,
      "IF": 5746,
      "Ġpump": 5747,
      "Ġbound": 5748,
      "Ġcalc": 5749,
      "ossible": 5750,
      "Ġtow": 5751,
      "Ġimportance": 5752,
      "Ġnegative": 5753,
      "ĠCommun": 5754,
      "ighter": 5755,
      "Ġadapt": 5756,
      "prise": 5757,
      "Ġmir": 5758,
      "âĢĺ": 5759,
      "Ġcloser": 5760,
      "Ġpayment": 5761,
      "Ġathlet": 5762,
      "ĠTur": 5763,
      "ĠHotel": 5764,
      "OV": 5765,
      "Ġburn": 5766,
      "Ġbroken": 5767,
      "Ġtonight": 5768,
      "inch": 5769,
      "urban": 5770,
      "Ġfold": 5771,
      "ĠEconom": 5772,
      "Ġrevenue": 5773,
      "Ġvalid": 5774,
      "iser": 5775,
      "reens": 5776,
      "ĠLook": 5777,
      "Ġattacks": 5778,
      "essions": 5779,
      "Ġdial": 5780,
      "Ġthick": 5781,
      "eless": 5782,
      "Ġexchange": 5783,
      "Ġcontem": 5784,
      "Ġbringing": 5785,
      "Ġhundreds": 5786,
      "idden": 5787,
      "ĠKore": 5788,
      "ubs": 5789,
      "ĠDef": 5790,
      "hop": 5791,
      "Ġfellow": 5792,
      "osoph": 5793,
      "Ġmode": 5794,
      "Ġsubstant": 5795,
      "Ġvan": 5796,
      "Ġbrown": 5797,
      "Ġherself": 5798,
      "ĠLin": 5799,
      "Ġaudio": 5800,
      "Ġtables": 5801,
      "Ġconfidence": 5802,
      "list": 5803,
      "67": 5804,
      "Ġhousing": 5805,
      "Ġadults": 5806,
      "MA": 5807,
      "Ġthread": 5808,
      "Ġment": 5809,
      "Ġhelpful": 5810,
      "ĠHistory": 5811,
      "ĠLear": 5812,
      "About": 5813,
      "uts": 5814,
      "Ġsad": 5815,
      "Click": 5816,
      "elly": 5817,
      "Ġadvoc": 5818,
      "Ġbelief": 5819,
      "Ġcommitment": 5820,
      "Ġlunch": 5821,
      "aren": 5822,
      "alian": 5823,
      "Ġregistered": 5824,
      "erves": 5825,
      "Ġdecades": 5826,
      "ĠView": 5827,
      "ĠMake": 5828,
      "Ġwearing": 5829,
      "ĠON": 5830,
      "Ġanywhere": 5831,
      "Ġseeking": 5832,
      "ĠEnergy": 5833,
      "ĠOl": 5834,
      "Ġappearance": 5835,
      "BI": 5836,
      "Ġforth": 5837,
      "door": 5838,
      "Ġexperts": 5839,
      "Res": 5840,
      "Ġexplained": 5841,
      "Ġtechniques": 5842,
      "Ġhur": 5843,
      "Ġmo": 5844,
      "isters": 5845,
      ".|": 5846,
      "Ġtests": 5847,
      "Ġmental": 5848,
      "irmed": 5849,
      "Ġpromote": 5850,
      "Ġportion": 5851,
      "sembly": 5852,
      "Ġnuclear": 5853,
      "Ġscientific": 5854,
      "Ġcrew": 5855,
      "ĠYoung": 5856,
      "Ġprofile": 5857,
      "Ġcuts": 5858,
      "Ġsigns": 5859,
      "Ġbreast": 5860,
      "Ġworst": 5861,
      "Ġcircumst": 5862,
      "Ġrecorded": 5863,
      "ĠCatholic": 5864,
      "Ġemphas": 5865,
      "ĠGen": 5866,
      "ĠReal": 5867,
      "Ġspecifically": 5868,
      "Ġfle": 5869,
      "Ġfaculty": 5870,
      "Ġdestroy": 5871,
      "Ġpitch": 5872,
      "Ġarms": 5873,
      "Ġsurgery": 5874,
      "rehensive": 5875,
      "ffect": 5876,
      "Ġille": 5877,
      "Ġsquare": 5878,
      "Ġobvious": 5879,
      "Ġvolume": 5880,
      "yard": 5881,
      "Ġwaste": 5882,
      "Ġbat": 5883,
      "Yes": 5884,
      "Ġpulled": 5885,
      "Ġtack": 5886,
      "Ġbeauty": 5887,
      "Or": 5888,
      "Ġobt": 5889,
      "Ġemergency": 5890,
      "ghan": 5891,
      "ĠMuslim": 5892,
      "Ġcoast": 5893,
      "Ġfighting": 5894,
      "ĠMinister": 5895,
      "amm": 5896,
      "Ġscale": 5897,
      "Ġconsequ": 5898,
      "ĠMo": 5899,
      "lo": 5900,
      "ĠSk": 5901,
      "Ġparticipate": 5902,
      "ĠFair": 5903,
      "Ġaccepted": 5904,
      "ĠRomney": 5905,
      "Ġlaugh": 5906,
      "inations": 5907,
      "Ġoccasion": 5908,
      "However": 5909,
      "cohol": 5910,
      "lines": 5911,
      "En": 5912,
      "comm": 5913,
      "Ġgarden": 5914,
      "cap": 5915,
      "atre": 5916,
      "Ġunivers": 5917,
      "Ġteen": 5918,
      "een": 5919,
      "ĠCA": 5920,
      "Ġenforce": 5921,
      "Ġcorn": 5922,
      "ĠGal": 5923,
      "Ġsurprise": 5924,
      "Ġfirstname": 5925,
      "ĠYOU": 5926,
      "Ġinternal": 5927,
      "Other": 5928,
      "ĠHD": 5929,
      "uations": 5930,
      "Ġang": 5931,
      "Ġchemical": 5932,
      "Ġdiscl": 5933,
      "Sc": 5934,
      "rene": 5935,
      "Ġdecor": 5936,
      "Ġagent": 5937,
      "Ġerror": 5938,
      "Ġconserv": 5939,
      "Ġrow": 5940,
      "Ġcandidate": 5941,
      "Ġplanned": 5942,
      "Ġimmig": 5943,
      "Ġrapid": 5944,
      "Tr": 5945,
      "ĠGall": 5946,
      "sts": 5947,
      "Can": 5948,
      "Ġfiled": 5949,
      "Ġmilk": 5950,
      "uration": 5951,
      "Ġfolks": 5952,
      "Ġtradition": 5953,
      "ĠMa": 5954,
      "uable": 5955,
      "ĠArmy": 5956,
      "Ġdropped": 5957,
      "Ġcarried": 5958,
      "Ġindeed": 5959,
      "Ġarrange": 5960,
      "ĠJustice": 5961,
      "Ġvisitors": 5962,
      "Ġchapter": 5963,
      "Ġcreation": 5964,
      "ĠJapanese": 5965,
      "Ġdelivered": 5966,
      "Su": 5967,
      "Ġmale": 5968,
      "Ġequal": 5969,
      "ĠMatt": 5970,
      "ĠÂ©": 5971,
      "Ġpositions": 5972,
      "anged": 5973,
      "Ġphotograph": 5974,
      "lets": 5975,
      "Ġproceed": 5976,
      "Ġlegislation": 5977,
      "Ġcriminal": 5978,
      "respond": 5979,
      "1990": 5980,
      "Ġframe": 5981,
      "ĠIP": 5982,
      "Ġinstance": 5983,
      "Ġdistribution": 5984,
      "Ġentered": 5985,
      "Most": 5986,
      "GE": 5987,
      "reets": 5988,
      "Mar": 5989,
      "Ġimagine": 5990,
      "ĠOrgan": 5991,
      "season": 5992,
      "Ġlaunched": 5993,
      "Ġrough": 5994,
      "ĠCorpor": 5995,
      "rum": 5996,
      "Ġpolitics": 5997,
      "Ġrac": 5998,
      "Ġguest": 5999,
      "CA": 6000,
      "Ġunf": 6001,
      "ĠStep": 6002,
      "Ġentirely": 6003,
      "Ġreduced": 6004,
      "Ġfollows": 6005,
      "Ġourselves": 6006,
      "ĠTest": 6007,
      "Ġsympt": 6008,
      "Ġflight": 6009,
      "ups": 6010,
      "ocket": 6011,
      "ĠOper": 6012,
      "Ġlosing": 6013,
      "Ġdiscount": 6014,
      "Ġpu": 6015,
      "Ġmeat": 6016,
      "mosp": 6017,
      "ĠMaybe": 6018,
      "Ġbigger": 6019,
      "Ġhate": 6020,
      "TV": 6021,
      "ĠPan": 6022,
      "Ġusual": 6023,
      "iner": 6024,
      "Ġgather": 6025,
      "Ġwalked": 6026,
      "vy": 6027,
      "Ġmillions": 6028,
      "Ġrelationships": 6029,
      "Ġpaying": 6030,
      "Ġsuit": 6031,
      "Ġrelatively": 6032,
      "Ġidentified": 6033,
      "Ġmotion": 6034,
      "ML": 6035,
      "Ġrare": 6036,
      "uthors": 6037,
      "gas": 6038,
      "Ġideal": 6039,
      "anish": 6040,
      "Ġscript": 6041,
      "Ġjourney": 6042,
      "mes": 6043,
      "Ġhurt": 6044,
      "ĠSup": 6045,
      "ĠAud": 6046,
      "ĠThose": 6047,
      "Ġconfig": 6048,
      "Ġinstitutions": 6049,
      "69": 6050,
      "Ġdram": 6051,
      "ache": 6052,
      "Ġunlike": 6053,
      "oman": 6054,
      "Ġepisode": 6055,
      "Ġsuggested": 6056,
      "ĠCat": 6057,
      "Ġillustr": 6058,
      "ĠOnline": 6059,
      "Ġextensive": 6060,
      "Ġpure": 6061,
      "ĠLight": 6062,
      "Ġtreated": 6063,
      "85": 6064,
      "ĠSher": 6065,
      "Ġodd": 6066,
      "Ġfaster": 6067,
      "tenance": 6068,
      "iability": 6069,
      "gypt": 6070,
      "Ġlocations": 6071,
      "Ġparking": 6072,
      "Ġorders": 6073,
      "Ġlicense": 6074,
      "Ġfruit": 6075,
      "Ġregional": 6076,
      "arts": 6077,
      "rical": 6078,
      "ogs": 6079,
      "Ġtermin": 6080,
      "eper": 6081,
      "ĠAdv": 6082,
      "osite": 6083,
      "ĠSecond": 6084,
      "aylor": 6085,
      "Ġvir": 6086,
      "Ġalleged": 6087,
      "Ġgraduate": 6088,
      "grade": 6089,
      "bu": 6090,
      "ometimes": 6091,
      "ĠSqu": 6092,
      "Ġfigures": 6093,
      "Ġwealth": 6094,
      "Ġsurprised": 6095,
      "fol": 6096,
      "Ġargument": 6097,
      "Ġmut": 6098,
      "Ġcheese": 6099,
      "Ġregister": 6100,
      "Ġsam": 6101,
      "Ġinvolve": 6102,
      "Ġaccommod": 6103,
      "Ġfunny": 6104,
      "Ġdetailed": 6105,
      "Ġreceiving": 6106,
      "Ġfort": 6107,
      "clusion": 6108,
      "Ġplate": 6109,
      "Ġtomorrow": 6110,
      "Ġelectronic": 6111,
      "Ġoptim": 6112,
      "arrow": 6113,
      "ora": 6114,
      "Ġminimum": 6115,
      "ario": 6116,
      "Ġweapons": 6117,
      "Ġhasn": 6118,
      "Ġfurn": 6119,
      "Ġfees": 6120,
      "________": 6121,
      "iration": 6122,
      "Ġexplore": 6123,
      "ĠFull": 6124,
      "Ġpurchased": 6125,
      "ĠArab": 6126,
      "ĠGar": 6127,
      "cknow": 6128,
      "Ġdogs": 6129,
      "Ġemployee": 6130,
      "Ġdiscover": 6131,
      "cribe": 6132,
      "Ġbeach": 6133,
      "ĠMic": 6134,
      "250": 6135,
      "owntown": 6136,
      "Ġliqu": 6137,
      "Ġbelong": 6138,
      "Ġconfident": 6139,
      "ĠBi": 6140,
      "ĠHospital": 6141,
      "Ġcandidates": 6142,
      "Ġfeatured": 6143,
      "Ġplastic": 6144,
      "Ġshipping": 6145,
      "Ġadvertising": 6146,
      "ĠSouthern": 6147,
      "American": 6148,
      "Ġking": 6149,
      "Ġdynam": 6150,
      "aser": 6151,
      "Ġinput": 6152,
      "Ġresearchers": 6153,
      "rooms": 6154,
      "Ġspoke": 6155,
      "Ġmatters": 6156,
      "ĠThank": 6157,
      "hered": 6158,
      "Ġdesire": 6159,
      "ĠDev": 6160,
      "iveness": 6161,
      "Ġcauses": 6162,
      "Ġspeaking": 6163,
      "Ġsick": 6164,
      "Ġoutput": 6165,
      "rible": 6166,
      "Ġconsidering": 6167,
      "ĠProv": 6168,
      "ĠWin": 6169,
      "Ġrecommended": 6170,
      "Thanks": 6171,
      "Ġappeal": 6172,
      "ĠHolly": 6173,
      "away": 6174,
      "600": 6175,
      "Ġresol": 6176,
      "ĠCharles": 6177,
      "orse": 6178,
      "ato": 6179,
      "Ġbelieved": 6180,
      "Ġutil": 6181,
      "ĠGeorgia": 6182,
      "foot": 6183,
      "ĠLead": 6184,
      "ĠChildren": 6185,
      "ta": 6186,
      "Ġswim": 6187,
      "Ġincorpor": 6188,
      "ĠWalk": 6189,
      "Ġchocolate": 6190,
      "Ġbroadcast": 6191,
      "li": 6192,
      "Ġperspective": 6193,
      "Ġlit": 6194,
      "97": 6195,
      "Ġgrab": 6196,
      "Ġfactor": 6197,
      "Ġneck": 6198,
      "Ġpil": 6199,
      "Ġrom": 6200,
      "aks": 6201,
      "TA": 6202,
      "ĠCam": 6203,
      "Ġdegrees": 6204,
      "Ġparticipants": 6205,
      "ĠAbout": 6206,
      "Ġcategory": 6207,
      "ĠHead": 6208,
      "ench": 6209,
      "Ġgro": 6210,
      "Ġsole": 6211,
      "Ġoffensive": 6212,
      "fection": 6213,
      "Ġgrew": 6214,
      "ĠLand": 6215,
      "ĠTake": 6216,
      "eder": 6217,
      "Ġedition": 6218,
      "Ġmeetings": 6219,
      "gs": 6220,
      "ingu": 6221,
      "ĠFar": 6222,
      "Ġjustice": 6223,
      "1997": 6224,
      "ĠSecretary": 6225,
      "ĠOR": 6226,
      "Ġbread": 6227,
      "ĠPhot": 6228,
      "Ġiron": 6229,
      "Ġbanks": 6230,
      "Ġhorse": 6231,
      "Ġvehicles": 6232,
      "Ind": 6233,
      "ancer": 6234,
      "Ġhell": 6235,
      "Ġrub": 6236,
      "Ġmassive": 6237,
      "Ġperman": 6238,
      "Am": 6239,
      "rison": 6240,
      "Ġresource": 6241,
      "ĠEll": 6242,
      "gend": 6243,
      "Ġproperly": 6244,
      "ĠMS": 6245,
      "Us": 6246,
      "ĠAcademy": 6247,
      "Ġnoticed": 6248,
      "Ġtalent": 6249,
      "Ġhistorical": 6250,
      "Ġabuse": 6251,
      "Ġdemocr": 6252,
      "Ġconducted": 6253,
      "Ġmusical": 6254,
      "Ġfields": 6255,
      "abled": 6256,
      "Ġupper": 6257,
      "Dr": 6258,
      "Ġnative": 6259,
      "Ġproperties": 6260,
      "mary": 6261,
      "ĠMP": 6262,
      "Ġaccounts": 6263,
      "zy": 6264,
      "Ġrecognized": 6265,
      "Ġcable": 6266,
      "Ġrand": 6267,
      "Ġconver": 6268,
      "ĠDar": 6269,
      "Ġowned": 6270,
      "Ġadm": 6271,
      "appy": 6272,
      "Ġordered": 6273,
      "Ġprofessionals": 6274,
      "hus": 6275,
      "Ġholds": 6276,
      "date": 6277,
      "Since": 6278,
      "Ġspokes": 6279,
      "Then": 6280,
      "ĠBell": 6281,
      "EST": 6282,
      "Ġacknow": 6283,
      "Ġbuildings": 6284,
      "Ġok": 6285,
      "rastructure": 6286,
      "Ġnegoti": 6287,
      "Ġsymb": 6288,
      "John": 6289,
      "ye": 6290,
      "Ġturning": 6291,
      "Also": 6292,
      "ansion": 6293,
      "Ġinterpret": 6294,
      "Pe": 6295,
      "ĠAriz": 6296,
      "Spe": 6297,
      "Ġdecade": 6298,
      "Ġbike": 6299,
      "ĠCoast": 6300,
      "View": 6301,
      "Ġprepare": 6302,
      "ensions": 6303,
      "ĠRon": 6304,
      "Ġtransform": 6305,
      "Ġrecovery": 6306,
      "ĠKen": 6307,
      "alse": 6308,
      "Ġlock": 6309,
      "Ġconclud": 6310,
      "ĠWhere": 6311,
      "Ġprocesses": 6312,
      "Ġboat": 6313,
      "ĠAff": 6314,
      "Ġformed": 6315,
      "ĠAndrew": 6316,
      "Ġapparently": 6317,
      "Ġven": 6318,
      "Ġaffected": 6319,
      "Ġcouncil": 6320,
      "ĠColorado": 6321,
      "CS": 6322,
      "Ġquant": 6323,
      "ĠList": 6324,
      "Ġtaught": 6325,
      "ework": 6326,
      "isation": 6327,
      "Ġmotiv": 6328,
      "Ġconvention": 6329,
      "inson": 6330,
      "Ġdangerous": 6331,
      "ĠInstead": 6332,
      "Ġaspects": 6333,
      "Ġbasketball": 6334,
      "ĠDie": 6335,
      "ĠMid": 6336,
      "Ġid": 6337,
      "Ġtechnologies": 6338,
      "Ġanswers": 6339,
      "otes": 6340,
      "Ġsusp": 6341,
      "Ġbaseball": 6342,
      "abet": 6343,
      "Ġinstalled": 6344,
      "Ġchicken": 6345,
      "ĠKenn": 6346,
      "ml": 6347,
      "new": 6348,
      "agon": 6349,
      "Of": 6350,
      "Rep": 6351,
      "ĠField": 6352,
      "iture": 6353,
      "Ġcolumn": 6354,
      "ĠHave": 6355,
      "Ġtypically": 6356,
      "Ġsupporting": 6357,
      "ERS": 6358,
      "Ġdomestic": 6359,
      "ĠFestival": 6360,
      "Ġchosen": 6361,
      "AY": 6362,
      "Ġrandom": 6363,
      "ĠFour": 6364,
      "Ġcompetitive": 6365,
      "Im": 6366,
      "ĠCH": 6367,
      "adium": 6368,
      "ĠRay": 6369,
      "Ġamend": 6370,
      "Ġanyway": 6371,
      "Ġobviously": 6372,
      "law": 6373,
      "Ġupcoming": 6374,
      "ĠGra": 6375,
      "1996": 6376,
      "Ġvoters": 6377,
      "Ġrevealed": 6378,
      "iana": 6379,
      "Ġtalks": 6380,
      "ĠEgypt": 6381,
      "Col": 6382,
      "Ġmessages": 6383,
      "bour": 6384,
      "obs": 6385,
      "Ġoffense": 6386,
      "Ġdiss": 6387,
      "ĠKent": 6388,
      "Ġscr": 6389,
      "ennis": 6390,
      "Ġmel": 6391,
      "Ġdefensive": 6392,
      "Ġmaximum": 6393,
      "Ġshoes": 6394,
      "Ġscholars": 6395,
      "Ġbull": 6396,
      "Ġhighlight": 6397,
      "Ġentertainment": 6398,
      "Ġec": 6399,
      "Ġresolution": 6400,
      "Ġcrazy": 6401,
      "aints": 6402,
      "Ġinstitution": 6403,
      "Ġcomponents": 6404,
      "Ġcounsel": 6405,
      "Ġincident": 6406,
      "ĠBas": 6407,
      "Ġoppon": 6408,
      "ĠHun": 6409,
      "Ġflo": 6410,
      "azon": 6411,
      "Ġfro": 6412,
      "Ġcircumstances": 6413,
      "ĠUt": 6414,
      "Ġupdates": 6415,
      "Ġinspired": 6416,
      ",'": 6417,
      "owing": 6418,
      "Ġshares": 6419,
      "ala": 6420,
      "Ġretire": 6421,
      "Ġextended": 6422,
      "Ġtalked": 6423,
      "Ġwarrant": 6424,
      "Ġatmosp": 6425,
      "ulture": 6426,
      "Ġpassing": 6427,
      "iors": 6428,
      "ibilities": 6429,
      "==": 6430,
      "rich": 6431,
      "EE": 6432,
      "alog": 6433,
      "Ġgay": 6434,
      "Ġgrown": 6435,
      "Ġliked": 6436,
      "Ġseriously": 6437,
      "ĠNext": 6438,
      "ĠWord": 6439,
      "inton": 6440,
      "essed": 6441,
      "ĠCanadian": 6442,
      "ĠAuthor": 6443,
      "Ġprofessor": 6444,
      "Ġpit": 6445,
      "Ġrenew": 6446,
      "ih": 6447,
      "ĠGM": 6448,
      "ban": 6449,
      "Ġdeals": 6450,
      "Ġsoul": 6451,
      "Ġreasonable": 6452,
      "onna": 6453,
      "agues": 6454,
      "Ġsignal": 6455,
      "ef": 6456,
      "Ġpresentation": 6457,
      "Over": 6458,
      "adel": 6459,
      "Ġhoping": 6460,
      "Ġfacts": 6461,
      "ĠBrand": 6462,
      "orough": 6463,
      "oration": 6464,
      "Ġstatements": 6465,
      "ĠPage": 6466,
      "obby": 6467,
      "ĠAR": 6468,
      "ĠTour": 6469,
      "Ġprove": 6470,
      "Ġhouses": 6471,
      "cons": 6472,
      "Ġtwe": 6473,
      "Ġdelay": 6474,
      "Ġhappening": 6475,
      "ĠCustom": 6476,
      "ĠParis": 6477,
      "Ġstands": 6478,
      "Rec": 6479,
      "Ġinfo": 6480,
      "Ġfairly": 6481,
      "Another": 6482,
      "iami": 6483,
      "ĠMarket": 6484,
      "Ġauthorities": 6485,
      "Go": 6486,
      "Ġworldwide": 6487,
      "oking": 6488,
      "ĠSP": 6489,
      "Ġdiscussed": 6490,
      "ĠHon": 6491,
      "ĠJr": 6492,
      "Ġletters": 6493,
      "ĠInf": 6494,
      "Ġknowing": 6495,
      "achel": 6496,
      "angers": 6497,
      "Ġindex": 6498,
      "Ġbelieves": 6499,
      "hetic": 6500,
      "Ġbowl": 6501,
      "ashed": 6502,
      "irms": 6503,
      "Ġhyd": 6504,
      "Ġfunctions": 6505,
      "Ġroute": 6506,
      "Ġreporting": 6507,
      "Ġconstruct": 6508,
      "Ġautomatically": 6509,
      "ĠLab": 6510,
      "rors": 6511,
      "Ġemployment": 6512,
      "Today": 6513,
      "ĠNight": 6514,
      "idelines": 6515,
      "Ġkeeps": 6516,
      "lyn": 6517,
      "Ġinches": 6518,
      "Ġdivision": 6519,
      "ĠItalian": 6520,
      "Ġgoods": 6521,
      "Ġgrade": 6522,
      "Ġchoices": 6523,
      "Ġcopyright": 6524,
      "Ġreturns": 6525,
      "ĠEnd": 6526,
      "Ġemp": 6527,
      "rate": 6528,
      "Ġreligion": 6529,
      "ĠTit": 6530,
      "Ġcutting": 6531,
      "Man": 6532,
      "ĠProduct": 6533,
      "ĠCy": 6534,
      "inder": 6535,
      "Copyright": 6536,
      "Ġcomprehensive": 6537,
      "Ġwid": 6538,
      "ĠEric": 6539,
      "Ġexamples": 6540,
      "Ġoriginally": 6541,
      "weet": 6542,
      "Ġsan": 6543,
      "sell": 6544,
      "ĠRepublicans": 6545,
      "ĠAfghan": 6546,
      "Ġsample": 6547,
      "arry": 6548,
      "ĠEnvironment": 6549,
      "alle": 6550,
      "LY": 6551,
      "ATION": 6552,
      "Â©": 6553,
      "amber": 6554,
      "Ġfabric": 6555,
      "Ġbeer": 6556,
      "62": 6557,
      "Ġarts": 6558,
      "Ġregul": 6559,
      "uting": 6560,
      "nam": 6561,
      "Ġrealized": 6562,
      "Ġtopics": 6563,
      "Ġaf": 6564,
      "Ġfixed": 6565,
      "FC": 6566,
      "ĠSon": 6567,
      "Ġimpossible": 6568,
      "Ġremote": 6569,
      "Ġguitar": 6570,
      "inois": 6571,
      "72": 6572,
      "Ġbon": 6573,
      "Ġfifth": 6574,
      "pet": 6575,
      "Ġsomewhat": 6576,
      "ĠDom": 6577,
      "ĠMaster": 6578,
      "Ġstudio": 6579,
      "Ġast": 6580,
      "uction": 6581,
      "ĠChair": 6582,
      "ĠInn": 6583,
      "Ġdefined": 6584,
      "TC": 6585,
      "asters": 6586,
      "ĠVan": 6587,
      "Ġenhance": 6588,
      "hem": 6589,
      "Ġsyn": 6590,
      "ĠLittle": 6591,
      "ublished": 6592,
      "ĠCook": 6593,
      "Ġdecre": 6594,
      "Ġglad": 6595,
      "1995": 6596,
      "ifer": 6597,
      "Ġfantastic": 6598,
      "Ġcontrast": 6599,
      "ĠAsia": 6600,
      "Ġprocessing": 6601,
      "Ġmeal": 6602,
      "Ġbroke": 6603,
      "ĠFox": 6604,
      "ĠColl": 6605,
      "Ġwarn": 6606,
      "Ġbare": 6607,
      "ĠNFL": 6608,
      "ĠDavis": 6609,
      "ĠVictor": 6610,
      "Ġnob": 6611,
      "ĠSupreme": 6612,
      "Ġsymptoms": 6613,
      "ĠCross": 6614,
      "ĠDaily": 6615,
      "oral": 6616,
      "anny": 6617,
      "Ġappreciate": 6618,
      "rid": 6619,
      "pay": 6620,
      "anna": 6621,
      "ureau": 6622,
      "Ġstrike": 6623,
      "ĠSoft": 6624,
      "Ġsoph": 6625,
      "ĠInvest": 6626,
      "ilit": 6627,
      "eries": 6628,
      "Ġimpressive": 6629,
      "Ġnurs": 6630,
      "ĠAndroid": 6631,
      "inem": 6632,
      "Ġsou": 6633,
      "Ġperfectly": 6634,
      "Ġcorrespond": 6635,
      "ampion": 6636,
      "Ġfacing": 6637,
      "Ġspr": 6638,
      "Ġattorney": 6639,
      ".âĢĻ": 6640,
      "Ġjoy": 6641,
      "ĠProte": 6642,
      "Ġwal": 6643,
      "Ġdepth": 6644,
      "Ġwest": 6645,
      "icial": 6646,
      "this": 6647,
      "ĠLeg": 6648,
      "Ġtruck": 6649,
      "Ġkinds": 6650,
      "Ġmoments": 6651,
      "arters": 6652,
      "Ġarrested": 6653,
      "Ġcooper": 6654,
      "rovers": 6655,
      "uster": 6656,
      "Ġtournament": 6657,
      "GB": 6658,
      "ĠAnother": 6659,
      "Ġped": 6660,
      "iscal": 6661,
      "Ġingredients": 6662,
      "63": 6663,
      "Ġinvestors": 6664,
      "Ġsauce": 6665,
      "ĠBrad": 6666,
      ">>": 6667,
      "ĠLive": 6668,
      "Although": 6669,
      "Ġpounds": 6670,
      "ĠData": 6671,
      "Ġtea": 6672,
      "Ġpersons": 6673,
      "ĠBre": 6674,
      "Ġbreakfast": 6675,
      "ĠOS": 6676,
      "ints": 6677,
      "DS": 6678,
      "Ġlikes": 6679,
      "Jan": 6680,
      "Ġexpressed": 6681,
      "ĠEr": 6682,
      "inet": 6683,
      "ĠPack": 6684,
      "Ġclinical": 6685,
      "Ġcarbon": 6686,
      "Ġadds": 6687,
      "rip": 6688,
      "Ġstreets": 6689,
      "ĠiPad": 6690,
      "ican": 6691,
      "Ġproposal": 6692,
      "Ġaccomp": 6693,
      "Ġelig": 6694,
      "PM": 6695,
      "ĠâĢ¢": 6696,
      "Ġhopes": 6697,
      "omy": 6698,
      "Ġunable": 6699,
      "Ġchain": 6700,
      "ifications": 6701,
      "Ġsubmit": 6702,
      "Ġmurder": 6703,
      "Ġnav": 6704,
      "ĠJersey": 6705,
      "Ġindustrial": 6706,
      "ĠFOR": 6707,
      "Ġserves": 6708,
      "Ġfeaturing": 6709,
      "Ġloan": 6710,
      "orders": 6711,
      "ĠDC": 6712,
      "she": 6713,
      "elcome": 6714,
      "ĠGlobal": 6715,
      "Ġdirected": 6716,
      "host": 6717,
      "Ġspiritual": 6718,
      "ellect": 6719,
      "nesota": 6720,
      "Ġshel": 6721,
      "tle": 6722,
      "long": 6723,
      "Ġneither": 6724,
      "Ġisland": 6725,
      "Ġfeedback": 6726,
      "ĠPay": 6727,
      "utch": 6728,
      "Ġvisiting": 6729,
      "ĠCast": 6730,
      "Ġmoves": 6731,
      "ĠGirl": 6732,
      "Ġwins": 6733,
      "Ġengineering": 6734,
      "Ġconfirm": 6735,
      "ĠSpanish": 6736,
      "wing": 6737,
      "Ġcovers": 6738,
      "ĠMax": 6739,
      "nic": 6740,
      "Ġyounger": 6741,
      "ĠArizona": 6742,
      "REE": 6743,
      "ĠManager": 6744,
      "Ġchannel": 6745,
      "Ġtag": 6746,
      "ĠTem": 6747,
      "ATE": 6748,
      "Ġincreases": 6749,
      "och": 6750,
      "Ġprovider": 6751,
      "ĠLog": 6752,
      "ĠSanta": 6753,
      "http": 6754,
      "Ġthin": 6755,
      "Ġunp": 6756,
      "Ġalcohol": 6757,
      "nell": 6758,
      "ĠMiller": 6759,
      "ĠLiber": 6760,
      "ĠGames": 6761,
      "Ġaccurate": 6762,
      "Ġpleased": 6763,
      "Per": 6764,
      "Ġcrack": 6765,
      "ugh": 6766,
      "ĠHard": 6767,
      "berry": 6768,
      "abb": 6769,
      "athan": 6770,
      "Ġbirthday": 6771,
      "ĠBra": 6772,
      "greg": 6773,
      "ĠStan": 6774,
      "Ġriver": 6775,
      "profit": 6776,
      "ĠVideo": 6777,
      "Ġexecut": 6778,
      "ĠBlog": 6779,
      "lete": 6780,
      "OO": 6781,
      "Ġslowly": 6782,
      "Ġapproval": 6783,
      "rell": 6784,
      "stream": 6785,
      "weight": 6786,
      "61": 6787,
      "ĠDaniel": 6788,
      "Ġfoods": 6789,
      "ĠSign": 6790,
      "Ġrail": 6791,
      "Ġgolf": 6792,
      "79": 6793,
      "Ġsight": 6794,
      "Ġmand": 6795,
      "Ġpossibility": 6796,
      "aska": 6797,
      "Ġconfirmed": 6798,
      "Ġauthors": 6799,
      "Ġhardware": 6800,
      "ĠAvenue": 6801,
      "iano": 6802,
      "stein": 6803,
      "Ġdesigns": 6804,
      "Ġdish": 6805,
      "Ġeffectively": 6806,
      "Ġsignificantly": 6807,
      "Ġfrequently": 6808,
      "Ġscientists": 6809,
      "ĠAdministration": 6810,
      "Ġdescription": 6811,
      "ĠJac": 6812,
      "ouston": 6813,
      "Ġprompt": 6814,
      "Ġpp": 6815,
      "Ġlovely": 6816,
      "Ġheads": 6817,
      "alty": 6818,
      "ĠExper": 6819,
      "ĠPot": 6820,
      "Ġvictims": 6821,
      "Ġsupports": 6822,
      "Many": 6823,
      "Ġ:)": 6824,
      "va": 6825,
      "Ġrelief": 6826,
      "otal": 6827,
      "Ġdepending": 6828,
      "Ġsuc": 6829,
      "opp": 6830,
      "Ġcapable": 6831,
      "Ġwatched": 6832,
      "Ġpermission": 6833,
      "ĠPak": 6834,
      "hi": 6835,
      "Ġmaintenance": 6836,
      "olit": 6837,
      "Ġunion": 6838,
      "bar": 6839,
      "ĠPacific": 6840,
      "ĠExecutive": 6841,
      "sm": 6842,
      "ixture": 6843,
      "Ġseasons": 6844,
      "Ġcooking": 6845,
      "ua": 6846,
      "Ġstretch": 6847,
      "Ġlights": 6848,
      "Ġattended": 6849,
      "ĠDemocratic": 6850,
      "Ġbear": 6851,
      "oster": 6852,
      "ĠTaylor": 6853,
      "ĠEp": 6854,
      "Ġweren": 6855,
      "Ġremark": 6856,
      "Ġmixed": 6857,
      "Ġidentity": 6858,
      "Ġfinds": 6859,
      "Ġevil": 6860,
      "inding": 6861,
      "Ġconflict": 6862,
      "Ġsin": 6863,
      "Ġpercentage": 6864,
      "Ġtypical": 6865,
      "ĠIndust": 6866,
      "anges": 6867,
      "ĠFriend": 6868,
      "Ġhall": 6869,
      "Ġentit": 6870,
      "aron": 6871,
      "Ġstood": 6872,
      "aine": 6873,
      "Ġrestaurants": 6874,
      "encing": 6875,
      "Ġzone": 6876,
      "Ġclaimed": 6877,
      "ĠJoseph": 6878,
      "Ġvary": 6879,
      "Ġvaluable": 6880,
      "ĠLew": 6881,
      "ĠPerson": 6882,
      "class": 6883,
      "Ġluck": 6884,
      "Ġpractical": 6885,
      "ĠSaf": 6886,
      "ĠCarl": 6887,
      "Ġvillage": 6888,
      "Ġvast": 6889,
      "Ġinterface": 6890,
      "rage": 6891,
      "Ġinfrastructure": 6892,
      "Ġaside": 6893,
      "ĠBible": 6894,
      "1980": 6895,
      "ĠPoint": 6896,
      "Ġtrend": 6897,
      "yers": 6898,
      "Ġelected": 6899,
      "lights": 6900,
      "Are": 6901,
      "UL": 6902,
      "ĠControl": 6903,
      "run": 6904,
      "resents": 6905,
      "ĠWat": 6906,
      "Ġillegal": 6907,
      "ĠFord": 6908,
      "Ġfaces": 6909,
      "erg": 6910,
      "ĠIllinois": 6911,
      "uling": 6912,
      "Int": 6913,
      "Ġsuggests": 6914,
      "Ġshap": 6915,
      "ĠJenn": 6916,
      "ĠDemocrats": 6917,
      "ras": 6918,
      "Ġagents": 6919,
      "ĠAustralian": 6920,
      "osit": 6921,
      "Look": 6922,
      "des": 6923,
      "Ġdrivers": 6924,
      "Even": 6925,
      "Ġregulations": 6926,
      "Ġsurprising": 6927,
      "ographic": 6928,
      "Ġvice": 6929,
      "ums": 6930,
      "ĠRest": 6931,
      "Ġlayer": 6932,
      "ĠLim": 6933,
      "Ġtail": 6934,
      "Ġâ": 6935,
      "Ġrecording": 6936,
      "Ġtall": 6937,
      "born": 6938,
      "Ġhyp": 6939,
      "Ġrele": 6940,
      "Ġexclusive": 6941,
      "Ġmedicine": 6942,
      "Ġsurf": 6943,
      "onym": 6944,
      "bel": 6945,
      "Ġfavour": 6946,
      "Ġempt": 6947,
      "xx": 6948,
      "ĠKh": 6949,
      "Ġdescribe": 6950,
      "ounded": 6951,
      "Ġconsistent": 6952,
      "Ġages": 6953,
      "Ġphilosoph": 6954,
      "Ġgear": 6955,
      "Ġestimated": 6956,
      "Ġsufficient": 6957,
      "Ġclothes": 6958,
      "Ġenthus": 6959,
      "Ġthinks": 6960,
      "Ġnetworks": 6961,
      "Ġticket": 6962,
      "gt": 6963,
      "ĠRod": 6964,
      "Ġremained": 6965,
      "ĠBrian": 6966,
      "Ġbattery": 6967,
      "stone": 6968,
      "ĠGuide": 6969,
      "Ġoccurred": 6970,
      "ĠAgain": 6971,
      "Ġinstructions": 6972,
      "Ġfalse": 6973,
      "Ġwrites": 6974,
      "Ġdifferences": 6975,
      "Ġhat": 6976,
      "Ġsomewhere": 6977,
      "Ġprocedures": 6978,
      "ĠBroad": 6979,
      "Ġnecessarily": 6980,
      "ĠLuc": 6981,
      "gage": 6982,
      "Ġexcess": 6983,
      "Ġlie": 6984,
      "Ġreader": 6985,
      "ĠLind": 6986,
      "Ġcock": 6987,
      "Ġobjects": 6988,
      "Ġphotograp": 6989,
      "ĠLabor": 6990,
      "isk": 6991,
      "ĠForce": 6992,
      "comes": 6993,
      "Ġexpression": 6994,
      "phy": 6995,
      "Ġnarrow": 6996,
      "ĠMiami": 6997,
      "Ġhousehold": 6998,
      "uls": 6999,
      "izz": 7000,
      "rated": 7001,
      "Ġimmediate": 7002,
      "Ġstrange": 7003,
      "teen": 7004,
      "ĠKat": 7005,
      "ipal": 7006,
      "Ġplanet": 7007,
      "ĠHollywood": 7008,
      "Ġlux": 7009,
      "lder": 7010,
      "Ġclosely": 7011,
      "Pr": 7012,
      "writ": 7013,
      "Ġnewspaper": 7014,
      "Ġeast": 7015,
      "Ġpra": 7016,
      "Ġinjuries": 7017,
      "ĠCirc": 7018,
      "ĠSite": 7019,
      "89": 7020,
      "Ġacts": 7021,
      "Ġrepeated": 7022,
      "Ġwheel": 7023,
      "RI": 7024,
      "Ġreject": 7025,
      "Ġprofit": 7026,
      "Ġcommunications": 7027,
      "Ġcake": 7028,
      "Ġobtain": 7029,
      "umin": 7030,
      "phia": 7031,
      "pel": 7032,
      "ensity": 7033,
      "claim": 7034,
      "ĠStat": 7035,
      "Ġrecognize": 7036,
      "Ġrose": 7037,
      "Ġmoder": 7038,
      "Ġduty": 7039,
      "ĠBull": 7040,
      "nda": 7041,
      "Ġinstrument": 7042,
      "ĠExt": 7043,
      "endar": 7044,
      "Ġinnovative": 7045,
      "Ġanticip": 7046,
      "Who": 7047,
      "ĠCentre": 7048,
      "120": 7049,
      "razil": 7050,
      "Ġstim": 7051,
      "ĠPolicy": 7052,
      "Ġreaction": 7053,
      "ĠBru": 7054,
      "Ġsurrounding": 7055,
      "boy": 7056,
      "Ġheav": 7057,
      "Ġcontrovers": 7058,
      "Ġbasically": 7059,
      "arl": 7060,
      "icted": 7061,
      "Ġsteel": 7062,
      "Ġinvent": 7063,
      "stra": 7064,
      "Ġregistration": 7065,
      "enth": 7066,
      "ĠMinnesota": 7067,
      "rome": 7068,
      "esides": 7069,
      "Gu": 7070,
      "Ġpromise": 7071,
      "Ġlegs": 7072,
      "Where": 7073,
      "ĠLt": 7074,
      "Ġorganic": 7075,
      "ĠProfessor": 7076,
      "iments": 7077,
      "Ġtiny": 7078,
      "ĠAsh": 7079,
      "Book": 7080,
      "ĠCost": 7081,
      "Ġemotional": 7082,
      "ĠRadio": 7083,
      "high": 7084,
      "ĠRose": 7085,
      "adelphia": 7086,
      "ati": 7087,
      "Ġhang": 7088,
      "Ġprinciples": 7089,
      "Ġsettings": 7090,
      "Ġsimpl": 7091,
      "ĠKim": 7092,
      "ĠKevin": 7093,
      "eding": 7094,
      "anche": 7095,
      "Ġdiscipl": 7096,
      "ĠAD": 7097,
      "ultural": 7098,
      "Ġflood": 7099,
      "Ġrein": 7100,
      "Ġtrading": 7101,
      "Ġstrategies": 7102,
      "ĠYet": 7103,
      "ĠFred": 7104,
      "suit": 7105,
      "itage": 7106,
      "post": 7107,
      "Ġscoring": 7108,
      "umes": 7109,
      "aug": 7110,
      "During": 7111,
      "Ġwebsites": 7112,
      "Ġaggress": 7113,
      "76": 7114,
      "Ġbodies": 7115,
      "Ġenforcement": 7116,
      "Ġvictim": 7117,
      "ĠPen": 7118,
      "ĠHenry": 7119,
      "Ġmal": 7120,
      "ĠFun": 7121,
      "ĠRight": 7122,
      "Ġrepresents": 7123,
      "lah": 7124,
      "ĠHarry": 7125,
      "Ġflash": 7126,
      "Ġgrass": 7127,
      "Ġcoal": 7128,
      "Ġultimately": 7129,
      "ĠGovern": 7130,
      "ĠAdam": 7131,
      "ĠHom": 7132,
      "star": 7133,
      "ĠRoom": 7134,
      "Ġlargely": 7135,
      "ĠIII": 7136,
      "GA": 7137,
      "ĠMrs": 7138,
      "owa": 7139,
      "Ġdistinct": 7140,
      "Ġmuseum": 7141,
      "Ġcompens": 7142,
      "Ġsilver": 7143,
      "Ġexposure": 7144,
      "Ġinvited": 7145,
      "Ġwalls": 7146,
      "ĠBox": 7147,
      "ĠWilson": 7148,
      "Ġtracks": 7149,
      "Ġwet": 7150,
      "ĠPlace": 7151,
      "Ġoutstanding": 7152,
      "ouch": 7153,
      "cers": 7154,
      "Ġawards": 7155,
      "Ġcycle": 7156,
      "Two": 7157,
      "Thank": 7158,
      "Ġaffili": 7159,
      "Ġinstruct": 7160,
      "Ġcarefully": 7161,
      "Ġadvis": 7162,
      "Ġ?": 7163,
      "ĠDun": 7164,
      "Ġfuck": 7165,
      "Ġyellow": 7166,
      "acc": 7167,
      "Ġwindows": 7168,
      "Ġspin": 7169,
      "estyle": 7170,
      "ylv": 7171,
      "cling": 7172,
      "Ġeverybody": 7173,
      "Ġtherapy": 7174,
      "Ġongoing": 7175,
      "Ġbow": 7176,
      "ĠRam": 7177,
      "level": 7178,
      "Ġextent": 7179,
      "Ġattrib": 7180,
      "Ġsky": 7181,
      "ĠSus": 7182,
      "rett": 7183,
      "1994": 7184,
      "makers": 7185,
      "Ġimprovement": 7186,
      "ĠThree": 7187,
      "Ġversions": 7188,
      "Ġprepar": 7189,
      "entle": 7190,
      "Ġsubmitted": 7191,
      "adow": 7192,
      "Ġreput": 7193,
      "mont": 7194,
      "inent": 7195,
      "Ġdoors": 7196,
      "Ġancient": 7197,
      "Ġexplains": 7198,
      "oty": 7199,
      "Ġsubsequ": 7200,
      "CD": 7201,
      "ĠSupport": 7202,
      "Ġdelight": 7203,
      "regon": 7204,
      "andy": 7205,
      "lock": 7206,
      "Ġassets": 7207,
      "Ġhistoric": 7208,
      "AB": 7209,
      "ĠSeattle": 7210,
      "Ġgod": 7211,
      "Ġdebut": 7212,
      "Ġhook": 7213,
      "Ġchose": 7214,
      "Ġexternal": 7215,
      "ĠDid": 7216,
      "Ġorganized": 7217,
      "Ġplug": 7218,
      "oir": 7219,
      "Ġcentre": 7220,
      "ĠNick": 7221,
      "Ġrepair": 7222,
      "Ġlistening": 7223,
      "Ġmanufacturing": 7224,
      "stood": 7225,
      "isms": 7226,
      "Ġconstitution": 7227,
      "Ġinvention": 7228,
      "Ġnearby": 7229,
      "oin": 7230,
      "ĠKansas": 7231,
      "ĠDoes": 7232,
      "Ġassign": 7233,
      "ava": 7234,
      "Ġfoundation": 7235,
      "aded": 7236,
      "Ġboost": 7237,
      "roduct": 7238,
      "ockey": 7239,
      "ritten": 7240,
      "ĠInte": 7241,
      "Ġdates": 7242,
      "oned": 7243,
      "Ġconcert": 7244,
      "Ġpersonally": 7245,
      "Ġregularly": 7246,
      "Ġatmosphere": 7247,
      "TER": 7248,
      "Ġcontinuing": 7249,
      "xy": 7250,
      "ilty": 7251,
      "ĠFre": 7252,
      "Ġreplaced": 7253,
      "game": 7254,
      "pan": 7255,
      "ether": 7256,
      "Once": 7257,
      "Ġrisks": 7258,
      "ĠTony": 7259,
      "Ġsmile": 7260,
      "hent": 7261,
      "liam": 7262,
      "Ġtransition": 7263,
      "Back": 7264,
      "ĠHope": 7265,
      "Ġsymbol": 7266,
      "Ġpassen": 7267,
      "ĠPalest": 7268,
      "ĠItaly": 7269,
      "burgh": 7270,
      "PC": 7271,
      "plete": 7272,
      "ĠTurn": 7273,
      "ĠAS": 7274,
      "Ġmountain": 7275,
      "Ġcollected": 7276,
      "Ġalive": 7277,
      "Ġvotes": 7278,
      "uing": 7279,
      "ailability": 7280,
      "ĠScot": 7281,
      "Ġbunch": 7282,
      "dy": 7283,
      "ĠAccess": 7284,
      "inals": 7285,
      "Ġapps": 7286,
      "ĠPass": 7287,
      "ĠTenn": 7288,
      "Ġborder": 7289,
      "Ġbomb": 7290,
      "Ġagric": 7291,
      "ĠBefore": 7292,
      "Ġprimarily": 7293,
      "urrent": 7294,
      "Ġobtained": 7295,
      "bal": 7296,
      "Ġacting": 7297,
      "uality": 7298,
      "oore": 7299,
      "Ġmini": 7300,
      "Ġhole": 7301,
      "iot": 7302,
      "Â·": 7303,
      "ĠMountain": 7304,
      "Ġloves": 7305,
      "Ġexpectations": 7306,
      "ĠOpt": 7307,
      "Ġincreasingly": 7308,
      "Ġlists": 7309,
      "ĠVill": 7310,
      "Ġlinked": 7311,
      "Ġlicens": 7312,
      "Ġ)": 7313,
      "reprene": 7314,
      "Ġjack": 7315,
      "aze": 7316,
      "Ġrear": 7317,
      "Ġconstantly": 7318,
      "Ġinformed": 7319,
      "ĠPlus": 7320,
      "iti": 7321,
      "ĠBa": 7322,
      "Ġurban": 7323,
      "anwhile": 7324,
      "RS": 7325,
      "Ġdealing": 7326,
      "Ġflour": 7327,
      "isted": 7328,
      "Ġheaded": 7329,
      "Ġgotten": 7330,
      "ĠHouston": 7331,
      "Ġsorry": 7332,
      "Ġreferred": 7333,
      "Ġsharp": 7334,
      "ĠRussian": 7335,
      "Ġplayoff": 7336,
      "ĠConnect": 7337,
      "Will": 7338,
      "Ġskill": 7339,
      "Ġassessment": 7340,
      "reland": 7341,
      "Ġawareness": 7342,
      "Ġdrawing": 7343,
      "iversary": 7344,
      "ĠKeep": 7345,
      "ĠNAS": 7346,
      "mal": 7347,
      "Ġunus": 7348,
      "Ġprohib": 7349,
      "VER": 7350,
      "Ġbench": 7351,
      "Ġmonthly": 7352,
      "raid": 7353,
      "ensus": 7354,
      "Ġdowntown": 7355,
      "iamond": 7356,
      "pes": 7357,
      "Ġoffices": 7358,
      "HS": 7359,
      "ĠTig": 7360,
      "Ġtied": 7361,
      "Ġfishing": 7362,
      "EA": 7363,
      "iscons": 7364,
      "Ġincredible": 7365,
      "His": 7366,
      "Ġpartnership": 7367,
      "Ġphen": 7368,
      "Ġapartment": 7369,
      "Ġexception": 7370,
      "86": 7371,
      "onto": 7372,
      "Ġphase": 7373,
      "ca": 7374,
      "ĠPrice": 7375,
      "Ġvacation": 7376,
      "Ġtrick": 7377,
      "Ġtur": 7378,
      "isconsin": 7379,
      "iform": 7380,
      "Ġshift": 7381,
      "Ġpapers": 7382,
      "Ġassistant": 7383,
      "allas": 7384,
      "Ġopposition": 7385,
      "ĠRussia": 7386,
      "Ġyield": 7387,
      "Ġresulting": 7388,
      "ilton": 7389,
      "ĠStart": 7390,
      "asks": 7391,
      "Ġattached": 7392,
      "Ġtwenty": 7393,
      "Note": 7394,
      "anned": 7395,
      "Ġhabit": 7396,
      "Ġsituations": 7397,
      "ylvania": 7398,
      "anes": 7399,
      "ikes": 7400,
      "Ġacid": 7401,
      "Ġexec": 7402,
      "Ġcontained": 7403,
      "ĠContin": 7404,
      "roit": 7405,
      "Ġsolar": 7406,
      "Ġenable": 7407,
      "Ġ($": 7408,
      "etime": 7409,
      "liament": 7410,
      "ĠCode": 7411,
      "Ġsevere": 7412,
      "bro": 7413,
      "Ġintelligence": 7414,
      "Ġsaved": 7415,
      "Ġkilling": 7416,
      "Ġcelebrate": 7417,
      "Ġpointed": 7418,
      "front": 7419,
      "Ġdelicious": 7420,
      "Ġopposite": 7421,
      "Ġgifts": 7422,
      "Ġprotein": 7423,
      "Ġtitles": 7424,
      "ounter": 7425,
      "idays": 7426,
      "Ġvirtual": 7427,
      "swe": 7428,
      "lahoma": 7429,
      "Oct": 7430,
      "Ġshouldn": 7431,
      "ĠSearch": 7432,
      "osa": 7433,
      "Ġsuspect": 7434,
      "Ġreward": 7435,
      "Ġseed": 7436,
      "Ġroutine": 7437,
      "ĠStudies": 7438,
      "atell": 7439,
      "Ġlucky": 7440,
      "olis": 7441,
      "Ġshock": 7442,
      "iences": 7443,
      "Ġsavings": 7444,
      "Ġsucceed": 7445,
      "Ġtab": 7446,
      "ĠTru": 7447,
      "pir": 7448,
      "ĠTech": 7449,
      "ĠCe": 7450,
      "Ġresc": 7451,
      "ĠFollow": 7452,
      "Ġdoctors": 7453,
      "Ġtap": 7454,
      "ĠSet": 7455,
      "Ġwriters": 7456,
      "ĠAmazon": 7457,
      "Ġefficiency": 7458,
      "ults": 7459,
      "Ġairport": 7460,
      "AND": 7461,
      "ĠAwards": 7462,
      "Ġterrit": 7463,
      "rog": 7464,
      "Ġsending": 7465,
      "alo": 7466,
      "Ġpublication": 7467,
      "Ġposting": 7468,
      "ĠTrust": 7469,
      "amental": 7470,
      "Ġrum": 7471,
      "ĠRog": 7472,
      "ĠThus": 7473,
      "'.": 7474,
      "redit": 7475,
      "ĠKey": 7476,
      "ura": 7477,
      "sters": 7478,
      "Ġbottle": 7479,
      "thew": 7480,
      "Ġtransportation": 7481,
      "elf": 7482,
      "including": 7483,
      "ĠStill": 7484,
      "ĠCN": 7485,
      "Ġliquid": 7486,
      "Ġintellect": 7487,
      "Ġelev": 7488,
      "Ã¡": 7489,
      "ĠDigital": 7490,
      "Ġsmell": 7491,
      ")|": 7492,
      "Ġnormally": 7493,
      "ĠRoyal": 7494,
      "ortion": 7495,
      "ervations": 7496,
      "ĠSH": 7497,
      "eline": 7498,
      "ĠMA": 7499,
      "Ġheight": 7500,
      "Ġsplit": 7501,
      "ĠLow": 7502,
      "iece": 7503,
      "Ġprocedure": 7504,
      "Ġdefault": 7505,
      "Feb": 7506,
      "ressed": 7507,
      "!!!!": 7508,
      "ĠSky": 7509,
      "ĠBal": 7510,
      "Ġproof": 7511,
      "bury": 7512,
      "ĠEastern": 7513,
      "Ġanymore": 7514,
      "zer": 7515,
      "Ġtie": 7516,
      "Follow": 7517,
      "Ġpatterns": 7518,
      "ĠBrazil": 7519,
      "inking": 7520,
      "ĠCreat": 7521,
      "Ġera": 7522,
      "dated": 7523,
      "Ġlatter": 7524,
      "ĠHand": 7525,
      "aud": 7526,
      "Ġtested": 7527,
      "ĠBon": 7528,
      "ĠOak": 7529,
      "Ġsuffered": 7530,
      "olec": 7531,
      "Ġinstallation": 7532,
      "ifies": 7533,
      "ĠDate": 7534,
      "rete": 7535,
      "96": 7536,
      "ĠContact": 7537,
      "ione": 7538,
      "Ġflowers": 7539,
      "ĠSection": 7540,
      "person": 7541,
      "Ġentr": 7542,
      "ĠBritain": 7543,
      "ĠAC": 7544,
      "Ġstruck": 7545,
      "upid": 7546,
      "agan": 7547,
      "Ġmembership": 7548,
      "ordan": 7549,
      "Ġrevolution": 7550,
      "ĠPhiladelphia": 7551,
      "Ke": 7552,
      "ĠJason": 7553,
      "Ġweekly": 7554,
      "Ġattempts": 7555,
      "Ġassume": 7556,
      "ĠEqu": 7557,
      "Ġsuddenly": 7558,
      "Ġfing": 7559,
      "ologist": 7560,
      "Check": 7561,
      "Ġscenes": 7562,
      "Ġengage": 7563,
      "Ġpin": 7564,
      "Ġopinions": 7565,
      "Ġproviders": 7566,
      "Ġmile": 7567,
      "87": 7568,
      "Ġillness": 7569,
      "Ġsessions": 7570,
      "ĠDiego": 7571,
      "Ġwidely": 7572,
      "asant": 7573,
      "orne": 7574,
      "Ġtank": 7575,
      "ĠMedicine": 7576,
      "ĠSystems": 7577,
      "ĠColumbia": 7578,
      "aph": 7579,
      "Ġtip": 7580,
      "olar": 7581,
      "bing": 7582,
      "Ġguarantee": 7583,
      "Ġforever": 7584,
      "orable": 7585,
      "Ġdomain": 7586,
      "missions": 7587,
      "Ġfulf": 7588,
      "Ġsupplies": 7589,
      "war": 7590,
      "ĠFarm": 7591,
      "ba": 7592,
      "sylvania": 7593,
      "page": 7594,
      "Ġsoldiers": 7595,
      "Ġmagn": 7596,
      "oil": 7597,
      "Ġwave": 7598,
      "Ġnoise": 7599,
      "who": 7600,
      "Ġexperiment": 7601,
      "Ġaspect": 7602,
      "celer": 7603,
      "Ġcontemporary": 7604,
      "ĠWatch": 7605,
      "Ġexistence": 7606,
      "Ġawarded": 7607,
      "Ġdrinking": 7608,
      "Ġforgot": 7609,
      "Ġintegrated": 7610,
      "Ġroof": 7611,
      "Ġarmy": 7612,
      "Ġstruggle": 7613,
      "ĠNorthern": 7614,
      "Ġvisited": 7615,
      "itals": 7616,
      "bell": 7617,
      "ĠHa": 7618,
      "Ġbrowser": 7619,
      "abetes": 7620,
      "Ġcontrols": 7621,
      "urse": 7622,
      "ĠThrough": 7623,
      "Ġbreaking": 7624,
      "Ġadmitted": 7625,
      "Ġpermanent": 7626,
      "Ġdefinition": 7627,
      "utor": 7628,
      "Ġcontribute": 7629,
      "uties": 7630,
      "Ġfiscal": 7631,
      "tes": 7632,
      "Ġseats": 7633,
      "Ġvend": 7634,
      "Ġfasc": 7635,
      "Ġassault": 7636,
      "iley": 7637,
      "Sm": 7638,
      "Ġgiant": 7639,
      "abeth": 7640,
      "Ġplot": 7641,
      "Ġbridge": 7642,
      "rition": 7643,
      "Ġhitting": 7644,
      "Ġdivid": 7645,
      "ĠIreland": 7646,
      "ĠSpirit": 7647,
      "Ġforest": 7648,
      "Ġlad": 7649,
      "ĠSpace": 7650,
      "MP": 7651,
      "Ġbatt": 7652,
      "ĠRick": 7653,
      "Ġimplementation": 7654,
      "Ġvul": 7655,
      "whel": 7656,
      "Ġexplan": 7657,
      "asts": 7658,
      "Ġgranted": 7659,
      "Ġpharm": 7660,
      "Ġcapture": 7661,
      "Ġdrawn": 7662,
      "Ġsuccessfully": 7663,
      "Ġnewly": 7664,
      "earing": 7665,
      "Ġflavor": 7666,
      "ĠStudents": 7667,
      "aturally": 7668,
      "heast": 7669,
      "istant": 7670,
      "etts": 7671,
      "irts": 7672,
      "Ġbreath": 7673,
      "ĠHIV": 7674,
      "ĠArea": 7675,
      "Ġrig": 7676,
      "ĠWH": 7677,
      "ĠOregon": 7678,
      "Ġcrop": 7679,
      "EP": 7680,
      "Ġicon": 7681,
      "ĠSteven": 7682,
      "Ġmarked": 7683,
      "lled": 7684,
      "intend": 7685,
      "Ġjew": 7686,
      "Ġfalling": 7687,
      "Ġdesigner": 7688,
      "Ġinvolving": 7689,
      "inator": 7690,
      "athy": 7691,
      "erts": 7692,
      "ĠMD": 7693,
      "Ġbrill": 7694,
      "Ġencouraged": 7695,
      "Ġaircraft": 7696,
      "ĠGi": 7697,
      "Â°": 7698,
      "Ġfindings": 7699,
      "iki": 7700,
      "Ġtiss": 7701,
      "Ġsees": 7702,
      "ĠLady": 7703,
      "Ġempty": 7704,
      "Ġexpansion": 7705,
      "bre": 7706,
      "Ġpowers": 7707,
      "ĠHoly": 7708,
      "Ġevolution": 7709,
      "1970": 7710,
      "Ġsheet": 7711,
      "Ġreduction": 7712,
      "ĠGreg": 7713,
      "Ġcomponent": 7714,
      "Sec": 7715,
      "amps": 7716,
      "Ġending": 7717,
      "Ġjur": 7718,
      "rific": 7719,
      "Reg": 7720,
      "EG": 7721,
      "ĠSav": 7722,
      "ĠBrook": 7723,
      "Ġdevelopers": 7724,
      "Ġconstant": 7725,
      "Ġcomputers": 7726,
      "ĠCre": 7727,
      "Ġsuffering": 7728,
      "aza": 7729,
      "ĠClinton": 7730,
      "Ġtrig": 7731,
      "pass": 7732,
      "Ġprotected": 7733,
      "was": 7734,
      "ĠBall": 7735,
      "Like": 7736,
      "Ġpace": 7737,
      "Ġchat": 7738,
      "ĠThough": 7739,
      "acon": 7740,
      "Ġrating": 7741,
      "Ġformal": 7742,
      "Ġmixture": 7743,
      "Ġoperate": 7744,
      "ĠStaff": 7745,
      "ĠAnth": 7746,
      "Ġperforming": 7747,
      "ĠDave": 7748,
      "ĠDisc": 7749,
      "Ġbell": 7750,
      "ĠBase": 7751,
      "ĠNote": 7752,
      "Ġcontrolled": 7753,
      "Ġstuck": 7754,
      "etry": 7755,
      "ulating": 7756,
      "ĠWisconsin": 7757,
      "RL": 7758,
      "uct": 7759,
      "Ġblocks": 7760,
      "HL": 7761,
      "Ġpepper": 7762,
      "Ġlaid": 7763,
      "ĠOK": 7764,
      "ĠBowl": 7765,
      "remony": 7766,
      "icide": 7767,
      "ĠConf": 7768,
      "ĠAtlanta": 7769,
      "mates": 7770,
      "Ġclimb": 7771,
      "74": 7772,
      "ĠÃ": 7773,
      "Ġprivacy": 7774,
      "Ġfounded": 7775,
      "worth": 7776,
      "Ġafraid": 7777,
      "Ġ;": 7778,
      "ĠWrit": 7779,
      "Ġrelative": 7780,
      "ĠDam": 7781,
      "Ġinjured": 7782,
      "ĠLo": 7783,
      "rieved": 7784,
      "Ġdiverse": 7785,
      "Ġintent": 7786,
      "Ġjudgment": 7787,
      "Ġdollar": 7788,
      "Ġprinted": 7789,
      "ĠCivil": 7790,
      "Ġol": 7791,
      "ĠStephen": 7792,
      "1993": 7793,
      "ĠTrib": 7794,
      "ĠCa": 7795,
      "ĠCorporation": 7796,
      "pen": 7797,
      "ĠFather": 7798,
      "oken": 7799,
      "Ġengaged": 7800,
      "Ġlies": 7801,
      "Ġputs": 7802,
      "Ġcategories": 7803,
      "Ġoutdoor": 7804,
      "92": 7805,
      "ĠTal": 7806,
      "Ġvital": 7807,
      "acking": 7808,
      "Ġlimits": 7809,
      "ĠIrish": 7810,
      "Ġvoted": 7811,
      "Ġloud": 7812,
      "Ġaccomplish": 7813,
      "Ġtroops": 7814,
      "ĠKnow": 7815,
      "Ġstone": 7816,
      "ĠSn": 7817,
      "ĠRo": 7818,
      "Ġhumans": 7819,
      "Ġpurs": 7820,
      "Ġmoral": 7821,
      "Ġshoulder": 7822,
      "Ġpresidential": 7823,
      "ucks": 7824,
      "idance": 7825,
      "Ġclar": 7826,
      "essel": 7827,
      "car": 7828,
      "Ġjunior": 7829,
      "issions": 7830,
      "Ġpersonnel": 7831,
      "ĠLewis": 7832,
      "Ġtouchdown": 7833,
      "Find": 7834,
      "',": 7835,
      "Ġcute": 7836,
      "case": 7837,
      "Ġstayed": 7838,
      "Ġmonitoring": 7839,
      "ĠFoot": 7840,
      "Ġpayments": 7841,
      "ĠPennsylvania": 7842,
      "ĠED": 7843,
      "Bu": 7844,
      "ĠPop": 7845,
      "Ġstead": 7846,
      "eman": 7847,
      "ĠMagazine": 7848,
      "ĠRun": 7849,
      "Ġinqu": 7850,
      "Ġimproving": 7851,
      "Ġenemy": 7852,
      "Ġwireless": 7853,
      "Ġeverywhere": 7854,
      "Ġaccused": 7855,
      "Ġembr": 7856,
      "ĠExpl": 7857,
      "Ġsevent": 7858,
      "Ġguilty": 7859,
      "1992": 7860,
      "Ġcourts": 7861,
      "ĠIowa": 7862,
      "ĠLinux": 7863,
      "ĠQuest": 7864,
      "achus": 7865,
      "ĠFind": 7866,
      "ESS": 7867,
      "anted": 7868,
      "ĠJews": 7869,
      "Ġfeelings": 7870,
      "Ġeggs": 7871,
      "making": 7872,
      "pat": 7873,
      "Ġcarrying": 7874,
      "Ġexpertise": 7875,
      "ceived": 7876,
      "Art": 7877,
      "Ġpainting": 7878,
      "Ġclothing": 7879,
      "ĠPA": 7880,
      "BM": 7881,
      "71": 7882,
      "Ġtrained": 7883,
      "Ġprogramming": 7884,
      "Ġcausing": 7885,
      "cal": 7886,
      "uter": 7887,
      "Ġbutt": 7888,
      "ĠJay": 7889,
      "ĠCommer": 7890,
      "Ġreturning": 7891,
      "ĠFinancial": 7892,
      "anke": 7893,
      "lee": 7894,
      "73": 7895,
      "Ġrecognition": 7896,
      "ĠPitt": 7897,
      "ĠAgency": 7898,
      "Ġdad": 7899,
      "Ġvari": 7900,
      "ĠCO": 7901,
      "ped": 7902,
      "acher": 7903,
      "yes": 7904,
      "ĠAfghanistan": 7905,
      "ĠSummer": 7906,
      "Ġsubsid": 7907,
      "Ġphr": 7908,
      "ĠEs": 7909,
      "ĠMult": 7910,
      "Ġmerely": 7911,
      "cr": 7912,
      "Ġevol": 7913,
      "ĠLatin": 7914,
      "struction": 7915,
      "Ġpremium": 7916,
      "Ġrecon": 7917,
      "ĠSU": 7918,
      "aning": 7919,
      "isa": 7920,
      "Ġstrategic": 7921,
      "ĠMs": 7922,
      "umer": 7923,
      "ĠSat": 7924,
      "84": 7925,
      "Ġplane": 7926,
      "Ġfestival": 7927,
      "ĠDisney": 7928,
      "Ġoven": 7929,
      "ĠBarb": 7930,
      "ĠDrive": 7931,
      "oln": 7932,
      "gent": 7933,
      "Good": 7934,
      "Ġlect": 7935,
      "epend": 7936,
      "Ġprecise": 7937,
      "Ġphones": 7938,
      "Ġdecent": 7939,
      "Ġeligible": 7940,
      "ĠSilver": 7941,
      "ĠMill": 7942,
      "Ġmagic": 7943,
      "Ġadopted": 7944,
      "ĠCountry": 7945,
      "Ġaband": 7946,
      "Ġcolour": 7947,
      "Ġsoil": 7948,
      "low": 7949,
      "Ġentitled": 7950,
      "mann": 7951,
      "AV": 7952,
      "Ġpresents": 7953,
      "Ġchallenging": 7954,
      "Ġconservative": 7955,
      "Ġachieved": 7956,
      "ĠPrem": 7957,
      "Ġunem": 7958,
      "Ġpleasure": 7959,
      "Ġintention": 7960,
      "Ġfranch": 7961,
      "Ġcompete": 7962,
      "Ġamounts": 7963,
      "Ġthorough": 7964,
      "ĠConstitution": 7965,
      "Ġfirms": 7966,
      "Ġfilter": 7967,
      "Ġfraud": 7968,
      "oked": 7969,
      "Ġenroll": 7970,
      "Ġrising": 7971,
      "Ġmachines": 7972,
      "amework": 7973,
      "Ġchampionship": 7974,
      "ĠPhys": 7975,
      "ĠBern": 7976,
      "Ġpasses": 7977,
      "print": 7978,
      "days": 7979,
      "ĠPS": 7980,
      "Ġcreates": 7981,
      "Ġrecommendations": 7982,
      "Ġreact": 7983,
      "ĠMajor": 7984,
      "oen": 7985,
      "Ġreputation": 7986,
      "Ġroot": 7987,
      "cific": 7988,
      "Ġadj": 7989,
      "RC": 7990,
      "Have": 7991,
      "Ġwithd": 7992,
      "oval": 7993,
      "ador": 7994,
      "achusetts": 7995,
      "ĠCru": 7996,
      "Ġbab": 7997,
      "Ġunderstood": 7998,
      "letter": 7999,
      "Ġfaced": 8000,
      "bles": 8001,
      "Ġrepresented": 8002,
      "ĠAsian": 8003,
      "Ġblind": 8004,
      "Ġsought": 8005,
      "ĠCase": 8006,
      "Ġdriven": 8007,
      "Ġgovernments": 8008,
      "inity": 8009,
      "ĠLu": 8010,
      "Ġadmit": 8011,
      "ĠSpain": 8012,
      "Ġeveryday": 8013,
      "Ġplain": 8014,
      "Ġopposed": 8015,
      "izabeth": 8016,
      "Ġhung": 8017,
      "gel": 8018,
      "Ġflying": 8019,
      "ĠSea": 8020,
      "Ġquarterback": 8021,
      "Ġisol": 8022,
      "Ġtechnique": 8023,
      "ĠLA": 8024,
      "Ġsentence": 8025,
      "82": 8026,
      "Ġmainly": 8027,
      "Ġultimate": 8028,
      "Ġfacilit": 8029,
      "Ġrequests": 8030,
      "osc": 8031,
      "Ġnations": 8032,
      "ĠEag": 8033,
      "ĠSupp": 8034,
      "Ġsomehow": 8035,
      "uous": 8036,
      "ĠStudent": 8037,
      "rants": 8038,
      "ALL": 8039,
      "Ġliterally": 8040,
      "lements": 8041,
      "ILL": 8042,
      "after": 8043,
      "ERE": 8044,
      "iah": 8045,
      "ĠApplic": 8046,
      "oga": 8047,
      "ĠSir": 8048,
      "Ġalt": 8049,
      "etary": 8050,
      "essee": 8051,
      "ĠSuch": 8052,
      "Ġmig": 8053,
      "Ġminister": 8054,
      "Ġfundamental": 8055,
      "Ġconsideration": 8056,
      "ĠWorks": 8057,
      "94": 8058,
      "made": 8059,
      "lections": 8060,
      "Ġharder": 8061,
      "Ġchances": 8062,
      "ogether": 8063,
      "ĠSC": 8064,
      "owned": 8065,
      "Ġvolunteers": 8066,
      "stery": 8067,
      "mers": 8068,
      "Ġads": 8069,
      "ĠResp": 8070,
      "eping": 8071,
      "%.": 8072,
      "Ġdining": 8073,
      "Ġscheme": 8074,
      "Ġvacc": 8075,
      "Ġinterior": 8076,
      "Ġcombat": 8077,
      "Ġboss": 8078,
      "Ġpotentially": 8079,
      "Ġscores": 8080,
      "Ġflav": 8081,
      "Ġstring": 8082,
      "Ġcenters": 8083,
      "oured": 8084,
      "Ġadventure": 8085,
      "Ġconvenient": 8086,
      "Ġindicated": 8087,
      "oper": 8088,
      "heim": 8089,
      "Ġequival": 8090,
      "Ġabsor": 8091,
      "ĠSenior": 8092,
      "Aug": 8093,
      "Ġdismiss": 8094,
      "ĠBry": 8095,
      "ĠLy": 8096,
      "Ġoverwhel": 8097,
      "roduction": 8098,
      "roke": 8099,
      "Ġparticipation": 8100,
      "ishop": 8101,
      "Ġbehalf": 8102,
      "ĠDetroit": 8103,
      "usal": 8104,
      "ĠTravel": 8105,
      "Ġprotest": 8106,
      "Ġpassword": 8107,
      "Ġmarks": 8108,
      "ĠJosh": 8109,
      "Ġflag": 8110,
      "Ġliterature": 8111,
      "Ġtired": 8112,
      "ĠDark": 8113,
      "Because": 8114,
      "Ġbirds": 8115,
      "Ġnarr": 8116,
      "ĠNic": 8117,
      "Ġobserved": 8118,
      "ĠChild": 8119,
      "ĠFurther": 8120,
      "Ġrecipes": 8121,
      "Ġproven": 8122,
      "News": 8123,
      "Part": 8124,
      "Ġloans": 8125,
      "Ġthousand": 8126,
      "ĠMir": 8127,
      "they": 8128,
      "ĠGuard": 8129,
      "ĠOklahoma": 8130,
      "Ġcollaboration": 8131,
      "Ġbags": 8132,
      "ĠMess": 8133,
      "ĠHay": 8134,
      "Ġloose": 8135,
      "Ġlapt": 8136,
      "Ġ(\"": 8137,
      "360": 8138,
      "iary": 8139,
      "ĠDallas": 8140,
      "Ġblow": 8141,
      "Ġgenerated": 8142,
      "iag": 8143,
      "Ġvoting": 8144,
      "ĠZeal": 8145,
      "ĠTax": 8146,
      "Ġasks": 8147,
      "ouri": 8148,
      "ĠPolit": 8149,
      "Ġassociation": 8150,
      "Ġreplacement": 8151,
      "Ġcro": 8152,
      "PD": 8153,
      "Ġcompr": 8154,
      "da": 8155,
      "1000": 8156,
      "TE": 8157,
      "imore": 8158,
      "ĠLocal": 8159,
      "iate": 8160,
      "ĠFREE": 8161,
      "folio": 8162,
      "lers": 8163,
      "acked": 8164,
      "ĠFac": 8165,
      "Ġbrands": 8166,
      "Ġtort": 8167,
      "ĠJun": 8168,
      "Ġcertific": 8169,
      "Ġcontributions": 8170,
      "Ġfarmers": 8171,
      "Ġraw": 8172,
      "Ġdust": 8173,
      "Ġlets": 8174,
      "âĢ¦.": 8175,
      "Ġauto": 8176,
      "Ġperformances": 8177,
      "ĠMemorial": 8178,
      "ĠAnderson": 8179,
      "ĠLine": 8180,
      "Ġcomparison": 8181,
      "Ġelections": 8182,
      "bridge": 8183,
      "Ġpipe": 8184,
      "formance": 8185,
      "Ġanx": 8186,
      "Ġpushed": 8187,
      "izer": 8188,
      "Ġstations": 8189,
      "Ġfinger": 8190,
      "Sub": 8191,
      "ĠVegas": 8192,
      "Orig": 8193,
      "Ġproducing": 8194,
      "Ġraising": 8195,
      "Ġintense": 8196,
      "Ġinnovation": 8197,
      "icious": 8198,
      "93": 8199,
      "inth": 8200,
      "annels": 8201,
      "Ġstir": 8202,
      "ĠNever": 8203,
      "dis": 8204,
      "ĠAllen": 8205,
      "FA": 8206,
      "Pre": 8207,
      "Ġstrongly": 8208,
      "Ġinch": 8209,
      "ruption": 8210,
      "imp": 8211,
      "orses": 8212,
      "Ġheading": 8213,
      "odge": 8214,
      "bow": 8215,
      "Ġsuggestions": 8216,
      "incoln": 8217,
      "Ġextension": 8218,
      "Ġwarning": 8219,
      "Ġinnings": 8220,
      "erving": 8221,
      "Ġsubjects": 8222,
      "ĠMobile": 8223,
      "Ġdynamic": 8224,
      "Ġclosing": 8225,
      "Ġpriority": 8226,
      "Ġmistake": 8227,
      "Ġappointed": 8228,
      "ĠLtd": 8229,
      "ĠFall": 8230,
      "inte": 8231,
      "holders": 8232,
      "Ġrepresentative": 8233,
      "ĠHim": 8234,
      "ĠDO": 8235,
      "Ġguidelines": 8236,
      "Ġchart": 8237,
      "riers": 8238,
      "onder": 8239,
      "raction": 8240,
      "ĠBrother": 8241,
      "ĠBuilding": 8242,
      "Ġcontaining": 8243,
      "Ġcolleagues": 8244,
      "83": 8245,
      "izza": 8246,
      "otted": 8247,
      "otton": 8248,
      "ĠCapt": 8249,
      "Star": 8250,
      "Ġrecover": 8251,
      "700": 8252,
      "Ġjoining": 8253,
      "aste": 8254,
      "Ġsustainable": 8255,
      "swered": 8256,
      "Ġindicate": 8257,
      "ĠFact": 8258,
      "ĠBalt": 8259,
      "Ġjail": 8260,
      "ĠHas": 8261,
      "Ġhadn": 8262,
      "ĠUsing": 8263,
      "ĠOlympic": 8264,
      "ĠRoman": 8265,
      "Ġcareful": 8266,
      "osm": 8267,
      "omething": 8268,
      "Ġpink": 8269,
      "Ġtone": 8270,
      "Ġheaven": 8271,
      "Ġease": 8272,
      "Ġspark": 8273,
      "ĠCab": 8274,
      "Ġkiss": 8275,
      "Ġru": 8276,
      "Ġchampion": 8277,
      "ĠStore": 8278,
      "Ġbid": 8279,
      "Ġprovision": 8280,
      "Ġunknown": 8281,
      "ĠMarc": 8282,
      "organ": 8283,
      "Ġexplos": 8284,
      "Ġinner": 8285,
      "Ġresistance": 8286,
      "ington": 8287,
      "ĠPerhaps": 8288,
      "Ġqualified": 8289,
      "ĠGro": 8290,
      "Ġreducing": 8291,
      "Ġbills": 8292,
      "ĠSoftware": 8293,
      "ĠZealand": 8294,
      "Ġregions": 8295,
      "ĠArm": 8296,
      "Ġstupid": 8297,
      "Ġsearching": 8298,
      "ĠSarah": 8299,
      "Ġtor": 8300,
      "ĠBuff": 8301,
      "Ġstronger": 8302,
      "Ġnights": 8303,
      "Ġvit": 8304,
      "UD": 8305,
      "Ġsouthern": 8306,
      "Ġunw": 8307,
      "Ġtransp": 8308,
      "Ġmanaging": 8309,
      "ĠCorp": 8310,
      "ĠMassachusetts": 8311,
      "Ġmatches": 8312,
      "Ġske": 8313,
      "Ġgraphics": 8314,
      "Ġboards": 8315,
      "ĠJordan": 8316,
      "ĠTraining": 8317,
      "Ġretirement": 8318,
      "pton": 8319,
      "Ġsections": 8320,
      "fall": 8321,
      "unes": 8322,
      "Ġexceed": 8323,
      "Ġproved": 8324,
      "Ġbrilliant": 8325,
      "Ġhidden": 8326,
      "Ġlegend": 8327,
      "rics": 8328,
      "Ġcapabilities": 8329,
      "Ġremem": 8330,
      "ĠRen": 8331,
      "Tube": 8332,
      "Ġlandscape": 8333,
      "Ġwondering": 8334,
      "Ġlessons": 8335,
      "Ġtape": 8336,
      "Ġinitiative": 8337,
      "ĠToronto": 8338,
      "ĠMaryland": 8339,
      "Ġracing": 8340,
      "Ġreliable": 8341,
      "Ġaddresses": 8342,
      "Ġtact": 8343,
      "Ġsmoke": 8344,
      "ĠRoll": 8345,
      "Ġcleaning": 8346,
      "Ġbands": 8347,
      "ĠNon": 8348,
      "ĠPDF": 8349,
      "Ġmemories": 8350,
      "irk": 8351,
      "Ġrecru": 8352,
      "110": 8353,
      "Ġinfl": 8354,
      "Ġcoc": 8355,
      "ĠPakistan": 8356,
      "ĠIndiana": 8357,
      "Ġcovering": 8358,
      "ogen": 8359,
      "ighth": 8360,
      "ĠLas": 8361,
      "Ġescape": 8362,
      "uine": 8363,
      "Ġborrow": 8364,
      "ĠQueen": 8365,
      "Ġroles": 8366,
      "haust": 8367,
      "ĠHur": 8368,
      "ĠIss": 8369,
      "Ġwake": 8370,
      "jection": 8371,
      "Ġannouncement": 8372,
      "].": 8373,
      "Ġadequ": 8374,
      "ĠWhether": 8375,
      "Free": 8376,
      "Ġunusual": 8377,
      "zes": 8378,
      "abama": 8379,
      "ds": 8380,
      "iac": 8381,
      "Ġlawyer": 8382,
      "Ġgenerate": 8383,
      "Ġmargin": 8384,
      "Ġtelephone": 8385,
      "Ġfewer": 8386,
      "hemat": 8387,
      "Ġinstruction": 8388,
      "ĠUlt": 8389,
      "Ġarrive": 8390,
      "ĠTen": 8391,
      "ĠUnfortunately": 8392,
      "Ġinspiration": 8393,
      "ART": 8394,
      "bi": 8395,
      "aver": 8396,
      "Ġattitude": 8397,
      ".;": 8398,
      "Ġvolunteer": 8399,
      "Ġdispl": 8400,
      ".-": 8401,
      "Ġbuff": 8402,
      "Ġavailability": 8403,
      "sub": 8404,
      "Ġauthent": 8405,
      "Before": 8406,
      "Ġaffordable": 8407,
      "Stud": 8408,
      "SC": 8409,
      "Ġpenalty": 8410,
      "Ġvulner": 8411,
      "ĠCond": 8412,
      "Ġinterviews": 8413,
      "stract": 8414,
      "Ġblogs": 8415,
      "ĠAustin": 8416,
      "Ġcopies": 8417,
      "ĠGarden": 8418,
      "Ġinvolves": 8419,
      "opher": 8420,
      "iro": 8421,
      "ĠGreek": 8422,
      "quest": 8423,
      "Ġchest": 8424,
      "owed": 8425,
      "Ġequally": 8426,
      "Ġexposed": 8427,
      "ĠPatrick": 8428,
      "Ġphenomen": 8429,
      "Ġclock": 8430,
      "Ġrural": 8431,
      "Ġresponded": 8432,
      "owers": 8433,
      "ĠForum": 8434,
      "Ġaccessible": 8435,
      "Ġconsequences": 8436,
      "Ġtradem": 8437,
      "Ġpreferred": 8438,
      "ĠMembers": 8439,
      "People": 8440,
      "rient": 8441,
      "ĠEth": 8442,
      "Ġarchitecture": 8443,
      "Ġdiscrim": 8444,
      "ĠJudge": 8445,
      "ĠMoore": 8446,
      "Ġintroduction": 8447,
      "Ġdecline": 8448,
      "Ġblank": 8449,
      "ĠIsraeli": 8450,
      "Ġhandling": 8451,
      "Ġlosses": 8452,
      "orous": 8453,
      "vol": 8454,
      "ĠStory": 8455,
      "Ġceremony": 8456,
      "Ġgonna": 8457,
      "will": 8458,
      "isdom": 8459,
      "ĠHelp": 8460,
      "everal": 8461,
      "ĠPhill": 8462,
      "Ġdenied": 8463,
      "Ġmerch": 8464,
      "Ġscan": 8465,
      "Ġdiscussions": 8466,
      "ĠGolden": 8467,
      "ersion": 8468,
      "omic": 8469,
      "Ġbass": 8470,
      "Ġaccord": 8471,
      "Ġguidance": 8472,
      "Ġactor": 8473,
      "Ġgallery": 8474,
      "Ġconclusion": 8475,
      "ĠResources": 8476,
      "ĠCON": 8477,
      "ĠForest": 8478,
      "Ġspots": 8479,
      "Ġsurve": 8480,
      "Ġstrict": 8481,
      "Ġrecall": 8482,
      "ĠKelly": 8483,
      "ĠUr": 8484,
      "Ġsuitable": 8485,
      "Ġanswered": 8486,
      "Ġfinance": 8487,
      "ĠKorea": 8488,
      "style": 8489,
      "?)": 8490,
      "Ġroads": 8491,
      "Ġ~": 8492,
      "ĠDNA": 8493,
      "Ġvessel": 8494,
      "Ġdisplayed": 8495,
      "Ob": 8496,
      "ĠSafety": 8497,
      "Ġtrends": 8498,
      "HA": 8499,
      "Ġhosted": 8500,
      "Ġwra": 8501,
      "Ġweird": 8502,
      "Car": 8503,
      "ĠCro": 8504,
      "Ġimprovements": 8505,
      "Ġgene": 8506,
      "ĠHeart": 8507,
      "ocated": 8508,
      "Ġparam": 8509,
      "Ġexhibition": 8510,
      "Ġleather": 8511,
      "Ġsaving": 8512,
      "Ġbrothers": 8513,
      "ĠML": 8514,
      "Ġessentially": 8515,
      "Ġpreparation": 8516,
      "ĠRus": 8517,
      "1991": 8518,
      "ĠHoward": 8519,
      "ĠPalestin": 8520,
      "ĠCreek": 8521,
      "ĠBudd": 8522,
      "Ġextract": 8523,
      "Ġlighting": 8524,
      "Ġentreprene": 8525,
      "ĠSometimes": 8526,
      "ĠViet": 8527,
      "Ġdepends": 8528,
      "Ġconcerning": 8529,
      "Comp": 8530,
      "Ġlegit": 8531,
      "ĠLLC": 8532,
      "Ġentering": 8533,
      "aret": 8534,
      "Ġclassroom": 8535,
      "April": 8536,
      "UM": 8537,
      "Ġunex": 8538,
      "ormal": 8539,
      "Ġcircuit": 8540,
      "ĠTheatre": 8541,
      "Ġtrips": 8542,
      "Ġpetition": 8543,
      "Ġregardless": 8544,
      "March": 8545,
      "ĠCert": 8546,
      "ĠHawai": 8547,
      "ĠKentucky": 8548,
      "ĠWhich": 8549,
      "Ġgentle": 8550,
      "Ġintellectual": 8551,
      "Ġsubstantial": 8552,
      "ĠProp": 8553,
      "Ġrefused": 8554,
      "Ġtum": 8555,
      "Ġsinger": 8556,
      "Ġstyles": 8557,
      "Ġbars": 8558,
      "Ġgained": 8559,
      "Ġrecy": 8560,
      "Ġdesired": 8561,
      "Friday": 8562,
      "ahoo": 8563,
      "oric": 8564,
      "gov": 8565,
      "rite": 8566,
      "ĠMarsh": 8567,
      "viously": 8568,
      "bsite": 8569,
      "ĠStock": 8570,
      "Ġmeets": 8571,
      "izon": 8572,
      "Ġdisaster": 8573,
      "char": 8574,
      "mod": 8575,
      "Date": 8576,
      "Ġhealthcare": 8577,
      "Ġelsewhere": 8578,
      "ĠCP": 8579,
      "ystem": 8580,
      "ĠAttorney": 8581,
      "kel": 8582,
      "words": 8583,
      "Ġsizes": 8584,
      "ĠOrder": 8585,
      "ĠET": 8586,
      "rary": 8587,
      "Ġprincipal": 8588,
      "Ġappointment": 8589,
      "Ġgreatly": 8590,
      "oosing": 8591,
      "ko": 8592,
      "91": 8593,
      "ashes": 8594,
      "Ġriding": 8595,
      "Ġfired": 8596,
      "Ġsixth": 8597,
      "Ġworried": 8598,
      "ounce": 8599,
      "ĠJam": 8600,
      "ulum": 8601,
      "athered": 8602,
      "Co": 8603,
      "ĠCamer": 8604,
      "Ġdestination": 8605,
      "Ġtomat": 8606,
      "Ġcrash": 8607,
      "ĠSmall": 8608,
      "ĠPu": 8609,
      "ila": 8610,
      "blog": 8611,
      "ĠEU": 8612,
      "ĠExpress": 8613,
      "ĠEnt": 8614,
      "Ġuniform": 8615,
      "Ġconsumption": 8616,
      "Dav": 8617,
      "ĠEst": 8618,
      "Ġupload": 8619,
      "81": 8620,
      "Ġsuperior": 8621,
      "ĠMarketing": 8622,
      "intage": 8623,
      "ĠBad": 8624,
      "ogy": 8625,
      "sen": 8626,
      "ĠPubl": 8627,
      "nie": 8628,
      "looking": 8629,
      "ĠSquare": 8630,
      "Ġgap": 8631,
      "Ġtrem": 8632,
      "Ġcolon": 8633,
      "ership": 8634,
      "ĠCas": 8635,
      "Ġfrustr": 8636,
      "Ġchairman": 8637,
      "ĠSem": 8638,
      "je": 8639,
      "ĠTherefore": 8640,
      "Ġwaters": 8641,
      "Ġuncertain": 8642,
      "Comm": 8643,
      "Welcome": 8644,
      "hour": 8645,
      "Ġquote": 8646,
      "ĠTennessee": 8647,
      "Ġopens": 8648,
      "Ġsynt": 8649,
      "Ġpowder": 8650,
      "Ġsamples": 8651,
      "Ġdrag": 8652,
      "Ġphotography": 8653,
      "ĠNBA": 8654,
      "Ġacquis": 8655,
      "Ġvisible": 8656,
      "icity": 8657,
      "Ġlin": 8658,
      "istrib": 8659,
      "Ġrice": 8660,
      "HT": 8661,
      "Ġanniversary": 8662,
      "olds": 8663,
      "Ġexists": 8664,
      "Ġclubs": 8665,
      "Ġdeeply": 8666,
      "Ġliberal": 8667,
      "tra": 8668,
      "Ġreven": 8669,
      "Ġretired": 8670,
      "Ġargue": 8671,
      "ĠâĢĻ": 8672,
      "Ġfalls": 8673,
      "ĠMatthew": 8674,
      "urities": 8675,
      "Ġshell": 8676,
      "edge": 8677,
      "Ġsolo": 8678,
      "Ġofficially": 8679,
      "Ġrequested": 8680,
      "ĠTro": 8681,
      "ĠMember": 8682,
      "\")": 8683,
      "rec": 8684,
      "Ġdistributed": 8685,
      "Her": 8686,
      "Ġyard": 8687,
      "ĠDeb": 8688,
      "Ġcriteria": 8689,
      "wan": 8690,
      "Ġdescribes": 8691,
      "Ġaver": 8692,
      "Ġprize": 8693,
      "ĠFilm": 8694,
      "Ġlibr": 8695,
      "ista": 8696,
      "ĠClin": 8697,
      "Ġham": 8698,
      "ĠVice": 8699,
      "zing": 8700,
      "Ġocean": 8701,
      "cience": 8702,
      "books": 8703,
      "ĠPriv": 8704,
      "Ġgovernor": 8705,
      "don": 8706,
      "ĠStew": 8707,
      "unicip": 8708,
      "Ġdrama": 8709,
      "ĠNO": 8710,
      "Ġchannels": 8711,
      "icking": 8712,
      "Ġsolve": 8713,
      "Ġmanagers": 8714,
      "Ġsensitive": 8715,
      "Dis": 8716,
      "Ġrib": 8717,
      "Ġcontracts": 8718,
      "Ġproducer": 8719,
      "Ġdesper": 8720,
      "Ġstructures": 8721,
      "pert": 8722,
      "ĠPract": 8723,
      "Ġmob": 8724,
      "Ju": 8725,
      "Rem": 8726,
      "ĠEngineering": 8727,
      "ĠAnnual": 8728,
      "Ġjuice": 8729,
      "Ġpocket": 8730,
      "Ġconnections": 8731,
      "through": 8732,
      "Ġboot": 8733,
      "verty": 8734,
      "Ġheavily": 8735,
      "what": 8736,
      "Ġwinners": 8737,
      "Ġmoist": 8738,
      "race": 8739,
      "ĠMother": 8740,
      "Ġarr": 8741,
      "Ġcoaches": 8742,
      "onymous": 8743,
      "Ġpilot": 8744,
      "Ġcompare": 8745,
      "ĠMah": 8746,
      "Ġerrors": 8747,
      "igure": 8748,
      "stal": 8749,
      "ĠLyn": 8750,
      "Ġvibr": 8751,
      "Ġoblig": 8752,
      "cover": 8753,
      "Ġtasks": 8754,
      "Mark": 8755,
      "Ġsomebody": 8756,
      "1960": 8757,
      "Ġemployed": 8758,
      "rets": 8759,
      "Ġfurniture": 8760,
      "Ġpoverty": 8761,
      "Ġswing": 8762,
      "ĠRoss": 8763,
      "Ġhosting": 8764,
      "Ġphilosophy": 8765,
      "ĠDu": 8766,
      "asted": 8767,
      "Ġcalendar": 8768,
      "Ġtestim": 8769,
      "Ġcups": 8770,
      "ĠElizabeth": 8771,
      "Ġexpenses": 8772,
      "Ġnorthern": 8773,
      "ĠBand": 8774,
      "Ġpreced": 8775,
      "world": 8776,
      "ĠFer": 8777,
      "Ġspeaker": 8778,
      "isd": 8779,
      "ĠEmer": 8780,
      "Ġjury": 8781,
      "Ġpill": 8782,
      "Ġmad": 8783,
      "Ġwhenever": 8784,
      "vard": 8785,
      "Ġrespectively": 8786,
      "ĠVery": 8787,
      "Ġconscious": 8788,
      "ĠCub": 8789,
      "Ġundert": 8790,
      "ĠCooper": 8791,
      "ĠLink": 8792,
      "Ġlady": 8793,
      "visor": 8794,
      "ĠCapital": 8795,
      "Ġmanual": 8796,
      "Ġloving": 8797,
      "Ġtill": 8798,
      "ĠWas": 8799,
      "Ġparticipating": 8800,
      "itionally": 8801,
      "Ġpig": 8802,
      "ĠAction": 8803,
      "cribed": 8804,
      "Ġstaying": 8805,
      "ĠSant": 8806,
      "ĠEnvironmental": 8807,
      "Ġstored": 8808,
      "Ġranked": 8809,
      "Ġstake": 8810,
      "ĠAp": 8811,
      "Ġtheater": 8812,
      "sex": 8813,
      "Ġthrew": 8814,
      "aun": 8815,
      "Ġaddressed": 8816,
      "Great": 8817,
      "owered": 8818,
      "ardens": 8819,
      "ĠCra": 8820,
      "aa": 8821,
      "Ġdreams": 8822,
      "ceeds": 8823,
      "enter": 8824,
      "Ġscream": 8825,
      "ĠCancer": 8826,
      "ĠBarack": 8827,
      "Ġdemands": 8828,
      "Ġequivalent": 8829,
      "ĠPhoto": 8830,
      "ieties": 8831,
      "Ġchildhood": 8832,
      "ĠDead": 8833,
      "ĠUC": 8834,
      "ĠDefense": 8835,
      "ĠClark": 8836,
      "Ġveteran": 8837,
      "leans": 8838,
      "Ġarray": 8839,
      "atellite": 8840,
      "Ġacknowled": 8841,
      "Ġmaintained": 8842,
      "ĠComments": 8843,
      "Ġprivile": 8844,
      "about": 8845,
      "ĠNations": 8846,
      "wich": 8847,
      "Ġdeclared": 8848,
      "Ġinitially": 8849,
      "Ġdiseases": 8850,
      "Ġbaking": 8851,
      "ĠTry": 8852,
      "Ġrarely": 8853,
      "Ġprime": 8854,
      "Ġraces": 8855,
      "Contact": 8856,
      "orgeous": 8857,
      "Ġweapon": 8858,
      "Ġtraveling": 8859,
      "ĠBat": 8860,
      "Ġrequirement": 8861,
      "ickets": 8862,
      "ĠRoy": 8863,
      "Ġcomedy": 8864,
      "ĠAlabama": 8865,
      "ĠMu": 8866,
      "Ġagenda": 8867,
      "ĠRetrieved": 8868,
      "Ġelectron": 8869,
      "ĠGallery": 8870,
      "ĠGovernor": 8871,
      "...]": 8872,
      "Ġacceler": 8873,
      "2014": 8874,
      "ĠSS": 8875,
      "Ġmanufacturers": 8876,
      "Ġbedroom": 8877,
      "Ġassigned": 8878,
      "Ġboxes": 8879,
      "Ġelectricity": 8880,
      "Ġguns": 8881,
      "vit": 8882,
      "ĠLincoln": 8883,
      "Ġmood": 8884,
      "ĠAccount": 8885,
      "awa": 8886,
      "ĠChampionship": 8887,
      "Ġhardly": 8888,
      "ĠProdu": 8889,
      "ĠIM": 8890,
      "Ġsinging": 8891,
      "Ġdozen": 8892,
      "Ġdrives": 8893,
      "called": 8894,
      "lla": 8895,
      "Ġcomplaint": 8896,
      "Ġuniverse": 8897,
      "Ġsuffer": 8898,
      "Ġupgrade": 8899,
      "chers": 8900,
      "udes": 8901,
      "Ġcomic": 8902,
      "ĠSwed": 8903,
      "Ġoutcome": 8904,
      "ropri": 8905,
      "Ġorange": 8906,
      "Ġdistingu": 8907,
      "Ġlifestyle": 8908,
      ")||": 8909,
      "eling": 8910,
      "ĠKingdom": 8911,
      "Ġattractive": 8912,
      "June": 8913,
      "âĢĻ.": 8914,
      "Ġgenuine": 8915,
      "Ġsecondary": 8916,
      "ĠYouTube": 8917,
      "ĠHart": 8918,
      "Christ": 8919,
      "Ġhip": 8920,
      "Ġcontributed": 8921,
      "ulpt": 8922,
      "ja": 8923,
      "Ġ]": 8924,
      "IST": 8925,
      "Ġinstant": 8926,
      "Ok": 8927,
      "rine": 8928,
      "Ġterrible": 8929,
      "Ġassists": 8930,
      "ĠCurrent": 8931,
      "ĠRa": 8932,
      "Ġcameras": 8933,
      "ĠDream": 8934,
      "Ġtalented": 8935,
      "Ġwestern": 8936,
      "Ġoccurs": 8937,
      "Ġgig": 8938,
      "ayer": 8939,
      "Ġinteractive": 8940,
      "El": 8941,
      "ĠBow": 8942,
      "Ġshops": 8943,
      "rection": 8944,
      "Ġshirt": 8945,
      "Ġforecast": 8946,
      "nce": 8947,
      "ospitals": 8948,
      "Ġstable": 8949,
      "ĠNatural": 8950,
      "Ġzero": 8951,
      "acter": 8952,
      "ools": 8953,
      "UC": 8954,
      "Ġpersonality": 8955,
      "ĠRub": 8956,
      "Top": 8957,
      "giving": 8958,
      "Ġsurvive": 8959,
      "ĠDean": 8960,
      "Ġdramatic": 8961,
      "Ġviewing": 8962,
      "ĠOfficer": 8963,
      "Ġfingers": 8964,
      "Ġadmin": 8965,
      "Ġenjoying": 8966,
      "Ġconsists": 8967,
      "Ġphotographs": 8968,
      "Ge": 8969,
      "ĠFR": 8970,
      "Ġchecked": 8971,
      "ĠBaltimore": 8972,
      "Ġvent": 8973,
      "ĠDer": 8974,
      "Ġnose": 8975,
      "ĠFed": 8976,
      "Ġpul": 8977,
      "Ġelectrical": 8978,
      "Ġexhaust": 8979,
      "Ġdisag": 8980,
      "Ġpod": 8981,
      "ĠFA": 8982,
      "ĠPo": 8983,
      "Ġluxury": 8984,
      "itis": 8985,
      "Ġbone": 8986,
      "Ġlesson": 8987,
      "Ġje": 8988,
      "ĠSciences": 8989,
      "MC": 8990,
      "Ġokay": 8991,
      "power": 8992,
      "Ġpreparing": 8993,
      "EF": 8994,
      "Ġinteract": 8995,
      "Ġtub": 8996,
      "ĠNob": 8997,
      "phones": 8998,
      "tery": 8999,
      "lessly": 9000,
      "ĠProm": 9001,
      "olt": 9002,
      "apolis": 9003,
      "only": 9004,
      "Ġorigin": 9005,
      "Ġincredibly": 9006,
      "IDS": 9007,
      "week": 9008,
      "Ġattending": 9009,
      "101": 9010,
      "ĠCopyright": 9011,
      "ĠPsych": 9012,
      "350": 9013,
      "Ġprayer": 9014,
      "ĠOrleans": 9015,
      "alysis": 9016,
      "igious": 9017,
      "Ġpackages": 9018,
      "Ġstatistics": 9019,
      "Ġoverse": 9020,
      "ĠAve": 9021,
      "Ġestimates": 9022,
      "uters": 9023,
      "cut": 9024,
      "Ġeleg": 9025,
      "ĠNCAA": 9026,
      "Ġprogramme": 9027,
      "Ġhotels": 9028,
      "istent": 9029,
      "ĠBud": 9030,
      "Ġgrace": 9031,
      "ighters": 9032,
      "Ġdomin": 9033,
      "pled": 9034,
      "Ġspaces": 9035,
      "ĠHP": 9036,
      "vision": 9037,
      "Ġinsight": 9038,
      "Ġrapidly": 9039,
      "Ġpushing": 9040,
      "onic": 9041,
      "ĠPur": 9042,
      "iler": 9043,
      "Ġmanufacturer": 9044,
      "Ġmeals": 9045,
      "elle": 9046,
      "Ġclim": 9047,
      "ĠTrade": 9048,
      "Ġblame": 9049,
      "ĠHell": 9050,
      "Ġbranch": 9051,
      "Ġcasual": 9052,
      "mate": 9053,
      "ppy": 9054,
      "acular": 9055,
      "Ġcomprom": 9056,
      "via": 9057,
      "ĠOs": 9058,
      "Ġpossession": 9059,
      "ĠDespite": 9060,
      "ĠMissouri": 9061,
      "Ġfur": 9062,
      "hire": 9063,
      "html": 9064,
      "ĠRos": 9065,
      "Ġtries": 9066,
      "bits": 9067,
      "ĠSep": 9068,
      "ourse": 9069,
      "ĠPa": 9070,
      "Ġsuck": 9071,
      "Ġimpressed": 9072,
      "Ġresort": 9073,
      "Ġcrucial": 9074,
      "ĠAnthony": 9075,
      "Ġreaching": 9076,
      "ĠMotor": 9077,
      "ĠIce": 9078,
      "Ġouts": 9079,
      "Ġtoler": 9080,
      "Ġminds": 9081,
      "Ġgender": 9082,
      "Ġcontribution": 9083,
      "Best": 9084,
      "Ġdestroyed": 9085,
      "Ġnaturally": 9086,
      "KE": 9087,
      "bered": 9088,
      "gener": 9089,
      "ĠStation": 9090,
      "Ġresulted": 9091,
      "Ġcompat": 9092,
      "esy": 9093,
      "Ġdeploy": 9094,
      "Ġprovisions": 9095,
      "ĠCL": 9096,
      "Ġspell": 9097,
      "ĠBureau": 9098,
      "ĠStandard": 9099,
      "ĠChristians": 9100,
      "Next": 9101,
      "quarters": 9102,
      "Ġmic": 9103,
      "Ġinfection": 9104,
      "ĠGre": 9105,
      "Ġcelebration": 9106,
      "Ġneighb": 9107,
      "ĠHor": 9108,
      "Ġmuscle": 9109,
      "Ġnic": 9110,
      "ĠSound": 9111,
      "ĠHarris": 9112,
      "Ġlens": 9113,
      "Ġvisits": 9114,
      "Cal": 9115,
      "QL": 9116,
      "Ġfranchise": 9117,
      "Ġstudied": 9118,
      "ĠHold": 9119,
      "Ġexpanded": 9120,
      "Ġbathroom": 9121,
      "Ġconfront": 9122,
      "def": 9123,
      "ĠPrime": 9124,
      "ĠAnton": 9125,
      "month": 9126,
      "Ġfounder": 9127,
      "attan": 9128,
      "ĠMom": 9129,
      "EX": 9130,
      "ĠAtlantic": 9131,
      "town": 9132,
      "Ġacquired": 9133,
      "Ġlogo": 9134,
      "rav": 9135,
      "ĠAirport": 9136,
      "Ġmolec": 9137,
      "Ġspeakers": 9138,
      "Ġcoup": 9139,
      "uten": 9140,
      "amsung": 9141,
      "ĠBooks": 9142,
      "Ġprinciple": 9143,
      "Ġtox": 9144,
[...]
